/**
  ******************************************************************************
  * @file    network_data_params.c
  * @author  AST Embedded Analytics Research Platform
  * @date    2026-05-26T17:08:32+0200
  * @brief   AI Tool Automatic Code Generator for Embedded NN computing
  ******************************************************************************
  * Copyright (c) 2026 STMicroelectronics.
  * All rights reserved.
  *
  * This software is licensed under terms that can be found in the LICENSE file
  * in the root directory of this software component.
  * If no LICENSE file comes with this software, it is provided AS-IS.
  ******************************************************************************
  */

#include "network_data_params.h"


/**  Activations Section  ****************************************************/
ai_handle g_network_activations_table[1 + 2] = {
  AI_HANDLE_PTR(AI_MAGIC_MARKER),
  AI_HANDLE_PTR(NULL),
  AI_HANDLE_PTR(AI_MAGIC_MARKER),
};




/**  Weights Section  ********************************************************/
AI_ALIGNED(32)
const ai_u64 s_network_weights_array_u64[81493] = {
  0xa4b4afaab0afad94U, 0xdf3f8ee191bccadU, 0xe311fefee8df02feU, 0xe2efdfdcf906e0ebU,
  0xbfbcd7ddd1f2be00U, 0xfa1208cfe1deeec6U, 0x16de0ffc09d2ea05U, 0xdbfd01ea0fe5e900U,
  0xfc200c17f1f617f1U, 0x3f9071b241e030dU, 0xf4ef0d0ad8e5f407U, 0xfde3f912f4d6eefdU,
  0xe1d3e5eadcfbf9ebU, 0xd7b6afbbd0b0bccbU, 0xc1dcd7cdbdcccbe1U, 0xdad9bcb4bad7aab4U,
  0xdce9e4c4f2cacdc0U, 0xc3d3aec2bbc3bae3U, 0xe6ddd8e9d4bcc9ecU, 0xd3ecdddcf1e0dbdcU,
  0xeccfecd2e9ffe6e3U, 0x10dfdded0b06e40fU, 0xfa12e400e9ebe61aU, 0xebd3d0e4defdd3dcU,
  0xe2ecd2e6eaeaff08U, 0xc9cac8c7fafedef5U, 0xf0f0f0f8d6eecec6U, 0xe9fefdee08fd02d7U,
  0x8f0f4efdae8ebf4U, 0xfcf1dd0beae7080aU, 0xe2e6d0d2d3e2e8dcU, 0xcfecedb5bde1cef6U,
  0xc4c2b2d7c3b2e4c6U, 0xd8b7c9abbdb2b5ccU, 0xd6bfcdc7ceb1b8d8U, 0xdabbdaf0c8bdcdd6U,
  0xf9e9c2dde2ec05edU, 0x5ef01f6d2f0d5f6U, 0xfecbf402d0d0efd6U, 0xd8cdefd8eefdf8d7U,
  0xcad8efe0f7ff0901U, 0xece5f3cebfefbed0U, 0xd3d1fbeddcdae502U, 0xd1f9cec9fecbeefaU,
  0xe8ede0dac2bcdec6U, 0xacbadfc6bfcbb0caU, 0xe5e9e9ccfbd5d2c8U, 0xd1e5bfe0fde1cdc6U,
  0xc3bdefc4b8d8dccdU, 0xc9edf1f9dde0bbbdU, 0xdfc7cb04f7efe2e6U, 0xe0b3dad1b9c8dcdeU,
  0xe8bdd5edebf0d5c1U, 0xd2edf6bcc8bbcbe2U, 0xfaf90c04e60a0af9U, 0x11f4dfe0ecf613faU,
  0xdffdf6e7f3dd06f1U, 0xf40edbed1d05ea23U, 0xd9f4ed060efbd907U, 0x5f7f0faf6fddeedU,
  0x1cf22207fae314f6U, 0x181b21fd23ebf21dU, 0xff1904fb0f0a0415U, 0x2dfc132e052d1713U,
  0x1214f51cf81d1c06U, 0xd00eddfbfbd7ffffU, 0xe507d7ddcfe1d701U, 0x161bff1722ed0fe2U,
  0x30270c0a1f350a24U, 0xd1503fa190ef82cU, 0xf527060d0c0305d1U, 0x13171116312001f4U,
  0x1b0efe2725180618U, 0xe509fd0ff60b3636U, 0x2109080a02fefa17U, 0x42150d1303f821fdU,
  0x402c363b123d112cU, 0x282723240f0d1d2eU, 0x1416f4271d161319U, 0x2d1e01ffee28261dU,
  0x4d3155511e331306U, 0x5016292518192a1eU, 0x72f231f1a3b1a16U, 0x103435091c353c1aU,
  0x350302fb2e321614U, 0x153432201f0f1000U, 0x2e1dfffb1b0739ffU, 0xb232728f90024f8U,
  0x554f1b1f3bfd280dU, 0x2d3d603558564625U, 0x5b394723471d2b4bU, 0x30705e515f664952U,
  0x3205152b1e2d1913U, 0x42193a4653183d2dU, 0x2b51442745463c3dU, 0x4641342a303b4c41U,
  0x2041505c4b4d4a36U, 0x384656442f24303fU, 0x3b4a40552c355833U, 0x413916384f0e3c2cU,
  0x5c51344e2c231e10U, 0x50215758474d3e5cU, 0x33572c414f644952U, 0x4036454d2c4c5734U,
  0x213d48162045411cU, 0x13151f104641461fU, 0x443c3611093f352bU, 0x485f4553542e333cU,
  0x42312f2b32431c31U, 0x17481e481346274eU, 0xfb1c1f2e59283136U, 0x150ff90a0f3bfb12U,
  0x3c09364035052311U, 0x2837382b1418433dU, 0x33453b1f26424140U, 0x4019544d48413218U,
  0x302f3d3a322e3955U, 0x24482a4e61423431U, 0x352e3c3b24281e25U, 0x1b3b1d361945212eU,
  0x172e36142f153920U, 0x291f312a10fa29f9U, 0x121715f3251f1c25U, 0x2dfc3230f12a0110U,
  0x24331818341c2e36U, 0xb0e141e13433737U, 0x1139310c1c2b160aU, 0x61104f7123f211fU,
  0x291a1335211c1224U, 0x3d55363d362e0029U, 0x2428222523331737U, 0x1947163b150b4033U,
  0x70e07323506fa3bU, 0x32214080232050eU, 0x42532924033a3d2dU, 0x592a42194d493019U,
  0x202a203f4a372932U, 0x3b26482a292f4e23U, 0x2b153c263232472aU, 0xd3a190324312315U,
  0x3c4a322a1b112522U, 0x3d2a0a2e22321422U, 0x52391e0d2e292f41U, 0x183a4514431d3737U,
  0x3b3e4525322f2d34U, 0x323236252e255b3fU, 0x1711163b17221f12U, 0x12234831293c1838U,
  0x321a392c153d3a31U, 0x2c1d372b41183318U, 0x1f000109fa051521U, 0x30310d4336453116U,
  0x3e35253d31404813U, 0x242cfa032026161dU, 0x71918161e23122aU, 0x11f71d161122fbe8U,
  0x5b352b273d27293bU, 0x1b473f402d505049U, 0x3a543a143e211243U, 0x3d08281b1f3a292dU,
  0xb0e20261f383011U, 0x4131323a382a400bU, 0x32192e244a3d1203U, 0xf1128335f304a0cU,
  0x2d043c1d1e080f09U, 0x1600101b0e300c3fU, 0xf71120f9072bedf5U, 0x25131e131813f806U,
  0x2af718eb1bf5260cU, 0xe1e083105230c12U, 0xbfa0d090b361516U, 0xfb1304f505093006U,
  0x11ea10271df72426U, 0x252729f72b3c1909U, 0xecdbdf14102d1429U, 0xdef1e4c3d7e6d6deU,
  0xe9dee1d0e0e0e7eaU, 0xed0ef5eb03f114fcU, 0xd1e8fd03f2f10c10U, 0xfcddeadcf000d1d1U,
  0xfafaf6d4fffee6e6U, 0xd3c7d7fed0e30bedU, 0xd9fffaceebf5d3f4U, 0xfefc11e9f2f2f8e5U,
  0x2811fc102c18f8faU, 0xf5e410050a14081eU, 0xf8f707c8d6deeee7U, 0xd1ede6dbced4d2f0U,
  0xd1cbc6bcdfc3bcU, 0xe6d6f1ede9eec3f2U, 0x20de2f0dd07cc01U, 0x2ec120e1510f20dU,
  0xecc2eed7e4dad2d1U, 0xcdcd96d6c4b1bad4U, 0xcfd4e3cdafd2d4b4U, 0xbabfbbc0c9ceddcfU,
  0xc5b2d7c9daa8af97U, 0xc7d9d9bca7aac999U, 0xd8c2eaedc4f3eef9U, 0xdfc89ec2b7c8d5e5U,
  0xd2b6b6d7aac1c8c9U, 0xd9beb9afe0cfc6d3U, 0xb7aeb9bccdf7e1c5U, 0xabacdde5c9d9d8bbU,
  0xbcbdb5dfc1c0dda4U, 0xd0f2c8b1bbbaabe6U, 0xd2ecd1d8e8e4efe2U, 0xdccce6effcc1f2f8U,
  0xadbead9fa9cee6e6U, 0xe1b6b8a2b7b390b9U, 0xd9bfbdd6bbc1b7adU, 0xaeb9b1cdd7bdb8dbU,
  0xcec8d1e2b8b9d7a6U, 0xc0cfbeb6c5dddfc3U, 0xaab5beb9c4b8c6b7U, 0xbdada8c8bdc7a5b0U,
  0xb7b7dad2accbabc9U, 0xdcc8afc0afbae7c3U, 0xb1b7c0add3c5c0d2U, 0xd89fceb3939db5dfU,
  0xd3a8b5bfa3b3b5bbU, 0xaac5beaaa1b99b9eU, 0xb5c99195a4bda9c6U, 0xd5dbd4d196aa91c4U,
  0xc5e5c8ee0202baddU, 0xe5b6f3debcc8b3deU, 0xe1fcc2cacde2c3c0U, 0xf1d9f1f8d0d4d3d0U,
  0xa8a8b9b3d0d2c6f0U, 0xc8c2d2afbcd9d2cbU, 0xd8ded0f8f6dccfdcU, 0xf1cbf9cdfdd2ebd8U,
  0xe3e904e8f4e107f0U, 0xfd0701e310eeff06U, 0xeec812dbd60210e7U, 0x501eaeadde1e2c7U,
  0xe9f9e3ee07c7d0d7U, 0xefc9c9e2f1f7e101U, 0xcbc2e4c0c3bbe4d2U, 0xd5faebf5bcdacfe4U,
  0xf80ef8f0ed0700e3U, 0xfdefc05f3180b10U, 0xcfbfdff7daf4dffeU, 0xcfd499d2bab1e0d9U,
  0xe50becebd6d0d6beU, 0xdefddcf4d006f30aU, 0xf0c6cadef5e5f5ecU, 0xfeddd0911f80617U,
  0xd1f6fad7e8e1f7ebU, 0xfee8f4f9cdfa03daU, 0x6daf7e9efefd2f3U, 0x1003f7ddecf9fbf3U,
  0x14f8e3e014f710f4U, 0xb24ec28002508U, 0xeb1bff210b060b07U, 0x1aff09f1e9e1ecf4U,
  0xe6d3d7d1edf41000U, 0x90dddfafbd6e803U, 0xf1c5bdd0fed40ad9U, 0xe8e7cab9b0d4c4c0U,
  0xaecf302eecae0cbU, 0xd3ede0d7dad8db03U, 0xd5ebe5ece1e6e5f9U, 0xe0eaddd8c3d3f2b9U,
  0x1a08e8d8d9ebd1c6U, 0xd504ebdafef3d7ffU, 0xcdebd7c8caefdfffU, 0x14fcef01d9f2d0c5U,
  0x1402081ef602eceeU, 0xd6d11a0e1615eae5U, 0xd8f3db0007e6f2ffU, 0xd4dbeff5f7dedae7U,
  0xdf15040901d8cbffU, 0x160403f5f1fcf805U, 0x4f82b0e00d8de10U, 0x71f2d2b0d181b13U,
  0xd4e9f809fee20df9U, 0xc6c1fbe1dcece9c6U, 0xe0cbf9db0ee8ebd2U, 0xcee0d0c7ecc8f6e2U,
  0x111510f3e9e9deeeU, 0xfcfd18ea1b161bf1U, 0x705fe123305f8f9U, 0x290b2310fd0e1400U,
  0x222a1c08f4221f01U, 0x22435220900100fU, 0xf1f10e0bf6011efcU, 0x14161cf118fb05e8U,
  0x3fc13e41cdfe302U, 0x700f006dd040817U, 0xf6f21502e6e1fb0fU, 0x13fcf1eae80dedf0U,
  0x25290f202c2e1b06U, 0xdbedff05f51a1f02U, 0xee0507ede9f4e0f8U, 0xf8f5fd0122ed0e19U,
  0x1df50d0722ebe4f2U, 0xd050e1208eaf502U, 0x20061e010b122b17U, 0x1c364c1c0e24f5f7U,
  0xf33030fe283a2c26U, 0xf28433d211a422aU, 0xcfc2208f527050bU, 0x3134491a10294716U,
  0x242c27240134392dU, 0x422190a080e2a2eU, 0x333e0afe343917f8U, 0xff0f232c46305040U,
  0x32272f272e130427U, 0x220912322303fa20U, 0xf72513fa20fe1024U, 0x3d042a25243e120fU,
  0x4a3c480a16250a2dU, 0x332c2d2208251719U, 0x5639564636354740U, 0x1f392c3d1b4b5b2bU,
  0x2c0bff2b1d483728U, 0x243029fe07231c23U, 0x59244724341c2024U, 0x321c1a553c291f4bU,
  0xfd1535122a1e392bU, 0x32116ff23030e03U, 0x103c200523471e0cU, 0xc0116e8fa1d0d07U,
  0xadee70506edffedU, 0x100c0614e903dbefU, 0x19270c162d431c0aU, 0x1c19204c32444d3eU,
  0x12c002a2129213cU, 0x5a1f2057201a4632U, 0x3522163b2341525cU, 0x736150b1f366441U,
  0x4020060a39152330U, 0x4624443029494b18U, 0x5439544e2e581e28U, 0x371a2f254741312bU,
  0x1b28293d5430302fU, 0x2a14474a361a3331U, 0x1224280a1a052c2fU, 0x91ffbf2022d242dU,
  0x3fd1cfffd0f2c0aU, 0x120b0cfee800e2edU, 0x2039201803fa0f21U, 0x24fa2017311a4a15U,
  0x161e0e1d31292120U, 0x9012c3f2622251dU, 0xff191d3a45233d29U, 0x42b262b2cfa32faU,
  0x11e051413fe2521U, 0x1520190c17fafc06U, 0xf2f60d11e3eef612U, 0x503fe181ff4f507U,
  0x130a14f52b0dfbfbU, 0x312081115271e10U, 0x152d2200102b18faU, 0xf826fe253009210eU,
  0x11151912f7f10bfcU, 0x290831fc0c202c19U, 0x131bf32c18043420U, 0x301e2d2a08e8f5e9U,
  0x30383a2e1c1d280bU, 0x1d320df5fd0b1b31U, 0x16fafd171c08fe07U, 0xf4edfded111ef0fdU,
  0x401120e041eecf4U, 0xd0e1ce01f3d1f5f2U, 0x191e0315eaffe507U, 0x1dfa15182a241b1eU,
  0xf8d40007e50606ecU, 0xf0d7d3d5f1deecedU, 0x6ead401cbf9d8edU, 0xedf8ede5ecfcd102U,
  0x17edf8c8f1edfef6U, 0x2006e705ecf8e923U, 0xf2f9d7cbd90dfe07U, 0xea12d201f3c7f3d5U,
  0x2733072601160d14U, 0x230382444464538U, 0xcddde2fcf315e3fdU, 0x4060d14ededddd5U,
  0x413513121a072b23U, 0xf9080113060c1a12U, 0xf6e6120df2e5e604U, 0xa101cfb04fbfaffU,
  0x19091b2d05180c14U, 0x30102609201f26U, 0x5f2f4061af92c2dU, 0xe401defc0d0a0fe5U,
  0x41ff0819f21c0c00U, 0x2c032e3912252b2fU, 0x1f2ebe904261815U, 0xf90c03e005fc02f7U,
  0xf51e291b080c050dU, 0xe000e091c14f315U, 0x8d2dbe9f6e0fbe7U, 0x19fe02eae4eada11U,
  0x92810160d140bf8U, 0x500ea041e070f2eU, 0x2103fa0916131812U, 0x111afe1ffd1f1b2aU,
  0xd0ddfe51deb2102U, 0x4362afc23f9f7e5U, 0x29232c1e06234239U, 0x4efde1e0e0df1ffU,
  0xdddbeefa03f7f4e6U, 0x32f90d1f31effc10U, 0xf017182d0d2227ffU, 0xe0fbedd50507fdf9U,
  0x8fb050afff80803U, 0xe0fb090e150a1818U, 0x18f31b150ff0fbf6U, 0x2e1b2116fb06f60fU,
  0xa04351531020f07U, 0xfde0016f4092602U, 0x1ecef0bcdf007f4U, 0xa26ef05f40dd2f8U,
  0x1e161e102b393410U, 0xdef02f801e5e512U, 0xfe0e190cf4e90b23U, 0xefcf4fc09e6f70dU,
  0x5eefd0ce5e900dfU, 0x3b050df51108e205U, 0xf72a1011f321033cU, 0x107f0cbc30cf202U,
  0xfe00da1605e10103U, 0xfb0a14e20b18fce4U, 0x7e718de0bf2e20dU, 0xfcff08fcd0fcffe1U,
  0xf61c0d03eb0df6e3U, 0xccddeffae409e50fU, 0xdad3efea11f3f0e9U, 0x14e11305fafae9f4U,
  0xc1f11080209f6eaU, 0xdc10ec07d4c40a10U, 0x3f23150906070ce5U, 0x2ff072828342e2fU,
  0xf6cffecbccd0dad4U, 0xd6ffebefc4e9dbc3U, 0xa0efa1e331207d3U, 0x121efb15200c1c09U,
  0xc3b9eeedbbcdf302U, 0xf9e0c3e2c9e8e5e1U, 0xebdb1219f7e2e8fcU, 0x4e7f4f6122408ecU,
  0xbad9efd4ddd9f2f9U, 0x16f7e1e1e1fddeceU, 0xf30307ed0c031ef1U, 0xdeea00f2eafde2dcU,
  0xe4c1f2ffd4edccddU, 0xaaebd9d9c3c2cadfU, 0xf5d6bce1e0dedfc2U, 0xd6d5e7d0ced8f4ecU,
  0xdc07efecdb100309U, 0xffcfe4def7efe5U, 0xf2f7e0e4e1f6d7dbU, 0xe0e7b0becec2e2d6U,
  0xe8f0faeae5d3d5dbU, 0xd2fefb07f90109f5U, 0xe3dcc900cff0d8f5U, 0xf6d5f8ffcbfde4e1U,
  0xc8f1d5e9eeeecceeU, 0xeff7f4e0c8e5d6dfU, 0xeb0629fb000de916U, 0xd8e1e2f81df7fa0eU,
  0xe5dce0d5cccac9f7U, 0xd8e8d5d6c4ccc2ebU, 0xe5f800db06e0e9d3U, 0xf0caebd5c1d4ecdcU,
  0xdbcad1d9feeecfddU, 0xdce0e5d4bce9f5d5U, 0xe0e1dadcccbdf3f9U, 0xecd7cbd0eadec6f1U,
  0xe8daedb3cebce2b5U, 0xe9fff2c7e3e6b6cfU, 0x18f4201717cfced9U, 0xf3f7dd10e812e3deU,
  0xfdeecef005100e07U, 0xf8f8d0f7f4dbd102U, 0xe1d607dfd7e7cad3U, 0x11e9ee1ce103f4f7U,
  0x3eaeae9df190519U, 0xc5c8e1bc00fcdce4U, 0xe3dfbff0eaedf2bdU, 0xfffbfbf5f1e0d5edU,
  0xdeebee07f2f501d5U, 0xdedfd9c5f7e9decfU, 0xf4e9eecfbfbcd7a6U, 0xe6d4c5f7d2c9e0fbU,
  0xd0e1b0bbc7e2daadU, 0xaee2ccd2adeadcd0U, 0xb4c9cbc6bfb2d2deU, 0xc1f1d2d2fcf2c4b5U,
  0xb9e1eaf0cde9bcf7U, 0xccefedc7dbd100dcU, 0xf3ffcfe6fdffcfe9U, 0xbdb9c6f9cfd5cdebU,
  0xc1cac6dfbad2b9e6U, 0xdbd8e9dddffddaccU, 0xf8efcb03e2f00001U, 0xc8e9d7bae3dbe2cfU,
  0xcac1dde5c6ecc5e0U, 0xb0812efe1efedd8U, 0xedfcbcd40ecdda11U, 0xefeee8c9e7e1f4e3U,
  0xf1bdcdc3dfe3fecfU, 0xc8cbd5d2cdf6e6ddU, 0xd2cbcecdd9e6eac3U, 0xe5b7d5ee00fae4c2U,
  0xd3b9e9ceceaac2c7U, 0xcccbdacbc5e403e8U, 0xe4e4ebd4dbdbecc3U, 0xb02cef8c5c8defaU,
  0xef521f9f6e5ed02U, 0xe2fefad9d60be11aU, 0x611f1f80201ecdeU, 0x150efa13f01707eeU,
  0x842200c23ff2011U, 0xfe0cdbf2da18f1e8U, 0xfdeb0c05e8dbfb00U, 0xf7eef21eea121d04U,
  0x2cbedf9ea01e8fbU, 0xf8e5de080207f804U, 0xfbedf0f0e900e0e3U, 0xdfcfa0d1e2e061eU,
  0xf8191e050cf50afbU, 0xf0ef0bffff172200U, 0x1107f513e3ecf8efU, 0xe608e1ee2712f004U,
  0xe003cbf6160edbfbU, 0x4437392ef8e100d1U, 0x34fd1d270f34263cU, 0x2d0105f61e150c05U,
  0x22f8eee10606fe10U, 0x163f331a22142d33U, 0x1f2b492c1c2a333dU, 0xf3f2061afe1e2828U,
  0x2438200a0606170eU, 0x183b4717303d3654U, 0x21252e4c201e4a40U, 0x211d4e15494d1906U,
  0x321a1d3f432c331bU, 0x212c0a203c2d1633U, 0x2323091c2f0d2223U, 0x70d1c3b1c082216U,
  0x362e3d0b272e2003U, 0x252918151f1e193cU, 0xf81d24442f421637U, 0x1930230d0f0e232dU,
  0x1d1232110c0c2419U, 0x2c181d332a3e1f36U, 0xdbd9fb04182b2834U, 0x203c1f141432ff02U,
  0x38271615161b3f46U, 0x2126120e0327fc16U, 0xc19e912eff404ebU, 0x194417233a350939U,
  0x2b2d372028234f52U, 0x3e103f2e06380b3eU, 0x1a0828051f102006U, 0x222b2a1e360b0226U,
  0xeb25091f2c0b2b2eU, 0x1e0224eb05f6f9e9U, 0x344111072f2e130cU, 0x2b262b1628244a36U,
  0x253e2d19092540U, 0x242f411620f61100U, 0x2e24204e17484614U, 0x363b1c3d4345483eU,
  0x3a27443005295725U, 0x1d243a4704351531U, 0x4d622e233046303aU, 0x283d2b23184a2427U,
  0x3a1a3a2610464d4dU, 0x3c50292b3a265628U, 0x523d614e62374a3fU, 0x3f25264259342a4dU,
  0x201f0d3e2931252cU, 0x1b150007211c1aU, 0x1f1e2b3c3e0f211cU, 0x5d34624437471b28U,
  0x35430a2922312d4dU, 0x231a1f474228381aU, 0x50c273d0c44211cU, 0x1827f30f260d2634U,
  0x46393c1d0d21142bU, 0x1a3a1f3449261d1cU, 0x2a0a2d4c423c272dU, 0x3314060d10223417U,
  0x2c43234343172c0fU, 0x1344422f16393f16U, 0x162e2b101d3d2117U, 0xf721000200322f09U,
  0x33130d06120913feU, 0x26031e113c23fe23U, 0x1332131713273a47U, 0x513fef4f617ff21U,
  0x290c15121cea0df3U, 0xf9191329f1122a26U, 0xfc0319040c1df116U, 0xed1c20f9fe100b18U,
  0xf3082c0039fa1af7U, 0xfd060a1811e80d04U, 0xf8f90800eff1d8fcU, 0x370b4315070631e7U,
  0x3419102b080c1dfeU, 0x7012322fef60c01U, 0x3144302931121905U, 0x1d0d2f4b323e481bU,
  0x1b181d1f16362418U, 0x442643214a453c2bU, 0x291748182330361cU, 0xee1e0d2c2017210eU,
  0x39390e252810322fU, 0x1d493f272a4e0d45U, 0x1633fc342e190d3eU, 0xf811232d1b25fd26U,
  0xf70219191325f71fU, 0x200507deea180a11U, 0xa16ee05fe1efc1bU, 0xd5d607d20de6eb1cU,
  0xe1eef9150b07e208U, 0xf91ff8e7f7f30707U, 0x110050c02ff1b29U, 0xfde3f6050bee1a00U,
  0xe7020ef4d3f2fcedU, 0xfa06fe08f2fb0d0aU, 0xf026f71a03f01ff5U, 0xdbd305fce1e6f812U,
  0xf10ed9cc06fff400U, 0x222d070219211ff6U, 0x5180619060d2333U, 0xffeef7f31110f2U,
  0xf20702f5f51313edU, 0xecf9ea060e0a0ee1U, 0xe90fe11713fffa06U, 0xfbfccbc7fd09f6fbU,
  0xe7e9ef10dfe0c2e2U, 0xd1cff4dde4dee1d4U, 0xd4fccaf4f1cdd9ddU, 0xf4ddf4d2c1c8d6c2U,
  0x9fc0dd2f6ede5e4U, 0xf51b301229021f04U, 0xe5f4bef8f2cceef9U, 0xf3ccd7e4efe3c6e0U,
  0xe5ddfb00f1fafddfU, 0xefcff1ebe2ebe3b8U, 0xebfcdce0e8e3e3e9U, 0xa2cbbfcad2bbe3dcU,
  0xffc5f3f3b79bbebdU, 0xfae5e8151b07fdf4U, 0xd0d3fcc9f6f8e5f2U, 0xddccd009fad10b02U,
  0xee0a0dfa0cebdfdcU, 0xffe0d7cfc2f6f3fbU, 0xd3e400fdd2f8bcfaU, 0xc7b2d5dfc3e2dffeU,
  0xa9d1b3b3b1aec0e5U, 0xc8c2d7cabcc6aaafU, 0xe9cbe9d0dadfd3faU, 0xc2ffd90815eccec6U,
  0xbcd0e3dbeef1cbdeU, 0xbe9ebcccb5acbbcbU, 0xef0afde2c6dedeb4U, 0xd5e2b2c2dff0de17U,
  0xbbc3c6ebafd2e2ccU, 0xe50cdceecad2b9dfU, 0xd3d2bde3e1e5d5cdU, 0xfef5e3eed6c3efc4U,
  0x11ec10f7dde9f9deU, 0xaad3b3d8d3f6d7d0U, 0xf3cbe8d9c5a3d8d2U, 0xffe5e608e8f9efe2U,
  0xc1f8d5e0dddedddaU, 0xdadaf9fb14e7e8dbU, 0xc6cbededdefad3daU, 0xc3ece9d5caf0d6c0U,
  0xf2dcd4f5f0e1ccc2U, 0xc69dc5c0b7b6dbbdU, 0xd802e6e0efcef4b6U, 0xf2fef14feffebe7U,
  0xbcc1d5e7cfe3f4dcU, 0x10d6eaeabce7e4c7U, 0xa1f4125202ef917U, 0xf1cfd2e6eff6f413U,
  0xdef8c2f9c4c2d7e0U, 0xf0f20f080de205cfU, 0xcbf109e5e41a1902U, 0xeee3e7d6d1def3f8U,
  0xcdf8ddd814dfe5e7U, 0xdad8dcc5c7d8f2e3U, 0x16f1e4deed09d908U, 0x230fec0b05e3dee2U,
  0xe9ee15f8fefe0922U, 0xe7b1e9e1f2c5f4e9U, 0xdbb3bfb9e1f0d2c8U, 0xe0e3dcc1ebe4b9cfU,
  0xe1d8e7c6d0dad4beU, 0x14d8f7f9eceaeddeU, 0xebd3dff716efe3d4U, 0xd3eeeff4fbf9dc0dU,
  0x1f1ffee80c03f0e1U, 0xcffc0b2608071612U, 0xb3b2e4dadfd8f9e4U, 0xa9cbd4a8c2a2aac8U,
  0xf2faeec7beb4dad0U, 0xe7fa06eaea05fdf4U, 0xeef2e7d4e6d1cbf6U, 0xe5effcfef3d5e5bdU,
  0x10230c0306f910f1U, 0xd5cbd809121ffe32U, 0xddd7f1d0c1d6b9eaU, 0xb5b7f5c4c0d0d9eaU,
  0xf5d6e2cee4cfb9b9U, 0xc0edbbe8bce4d8e9U, 0x11fed4f7eaddeec8U, 0x312fc1a0ffef001U,
  0xecf00ee80cf00b1eU, 0xe1ebcfdbdad0dd00U, 0xf9e7fae5eff3ee01U, 0xec02f309f700e006U,
  0xd5e4ecfd06081bf2U, 0x2fdc8e1eadcfce4U, 0x7d5ccddcacfd4f4U, 0x819f81b01e912faU,
  0x9340210fa0828feU, 0xe505fafff6140702U, 0x6ee13f2dedcfe07U, 0xe011ef2f20819f0U,
  0xd7d8d2f1d5e9e5f0U, 0x11f6e5ced1f2e5f6U, 0xd3def3d9eb0f13eaU, 0xdce1b0e7e8bcdfcbU,
  0xd5fbd5cbddd4cbe7U, 0x2140315ece8f7deU, 0xfbf7ee150800fd10U, 0xedf6fdf7ecd0dd07U,
  0xe215f918ff0d04f6U, 0x4ecf0de10dfdd07U, 0xcdf8f4dbebe6f808U, 0xeb0fece7ded60609U,
  0xccd1fed7d212fde0U, 0x1f7f8e9d1f2d8c5U, 0x12fd00110dffeaf3U, 0x804fcf30d040a00U,
  0xecfce8dde1fbefebU, 0xe51bfb0017ff171dU, 0xe31a12fcece50f0eU, 0xeef81f0117e5f0e4U,
  0xf3ebe5f9fffff71eU, 0xbee6ccdfc5cde60aU, 0xe2cad8b6d3d6cfb5U, 0xf3fdfdf8dbd1f1d2U,
  0xdfe6d90003181dfdU, 0xf7d4d8ddefd5fbf3U, 0x202c13251ffbe7dcU, 0x28f0f0022428041bU,
  0x705071e1c240812U, 0x509ebea1e0efcf5U, 0xe5f5daffd5ff00feU, 0xebd804d0d5e9fcfbU,
  0xe7e4ecf0e707e90dU, 0xcdf1c7e9ccf1eee9U, 0xeacfd6c4e2e9bab8U, 0xfbedeb1506d8d3e4U,
  0xe314f4eaf6f6e9feU, 0x12f30fe103e60904U, 0x1e1513f40d0a0803U, 0xfad201d60501f307U,
  0xcbccf2fad7b5d9c9U, 0xebf806f7f5fddfebU, 0x318ff01251f060cU, 0xff22f4290824070cU,
  0x13fe1af107eafbefU, 0x362c07390dff2e03U, 0x1e12454f20321907U, 0x1a04f1262902191cU,
  0x22e5f222eb0308fdU, 0xf5ff1c152208f21fU, 0x11f7fafd1e01ffffU, 0xea11f1efedef0723U,
  0x1417f7f8f613131aU, 0x2d3d29241a35012dU, 0x352e370c3b473136U, 0x415112f3f151efeU,
  0x191d453e0e29271dU, 0x1ef5f6090829212fU, 0xbebf7e200ef21f8U, 0x2f80ce10bff0203U,
  0x1601f4f8140e1902U, 0x3009f411eee617fdU, 0x1f374223271d170dU, 0x12af712123c1d1cU,
  0x3b153024252e0a20U, 0x3a12341301143807U, 0xeef416290c1f1c2cU, 0xcfd3d5cedaf9dee4U,
  0xfe03ee13f3140403U, 0x161d0b1cff210212U, 0x11ff04fe0f1df2efU, 0xe417f50bfbddf2eeU,
  0x331d3e0b0b0a1cf0U, 0xfe2f1f191e1b0113U, 0xfbe208f6f3030005U, 0x271220ff1026ea1cU,
  0xf6eddfe118020bf3U, 0xf3d4eae3d70302e9U, 0x601fd00f0d6f0e3U, 0x27370a0e080a1d27U,
  0x42411e3634113f04U, 0xf8de0008fbed2c23U, 0xe8f0ff00f9e5f309U, 0x3d3f353623222012U,
  0x351c14151a2e3521U, 0x312f602230b2420U, 0xf2252ffdf5f6ed21U, 0x13fd18f91e352809U,
  0x310f201c14223a03U, 0x30470e132426321eU, 0x191836fe360d2013U, 0xefe2e90904003505U,
  0xd7f6eaecf60d0802U, 0xdbffe3e9dbd503f9U, 0x3a282a0718040807U, 0x293d57552a494926U,
  0x202d364147144c1bU, 0xfe182d190419ff03U, 0x553b350f43422c31U, 0x1316414b4d472b4aU,
  0x16350c290e433e50U, 0xf4fc25183601230aU, 0x1f10211021241201U, 0x3d361a082c0c0bU,
  0x3b2b293d272a2f25U, 0x23f1fc23220e1c25U, 0xedf3f80bf6f0fc18U, 0x100508eaf1f00906U,
  0xe2eae3d1e9e3ee01U, 0xe0efbdffafb2013U, 0x815312f25f4fb16U, 0xa1e111c1bff1720U,
  0xc2e0c2825f7180cU, 0xe3eac7ecd6f0f115U, 0xff06fd120eeaf2fdU, 0x1c2407132d1f18fbU,
  0xdfc030516280a16U, 0xf4ec03e6150f0915U, 0xdffe6f3160103e0U, 0x2f303b241810140dU,
  0x1a0f072b2b251008U, 0x2433113108220400U, 0xfffa17041f280e35U, 0xa08d1e5d6e8f8f7U,
  0x2e70fecd1df0509U, 0x124b34151d191a01U, 0x141a173248454033U, 0x220a072b162c1c2aU,
  0xc4fdfc15f9fde508U, 0x1ff6002318f8fa01U, 0x625a1f4417490e13U, 0x311fb2f47435759U,
  0xe017e20bdcf4f6fcU, 0x20203d403a0715fbU, 0x475d39434f555623U, 0x1c13f3252efb3153U,
  0xf3f0e5e60522ee0aU, 0xef08ebdef9f4120bU, 0x8e4de0bd8deff0fU, 0xf20125fb28e2f2ddU,
  0x29382e1d2409f226U, 0x173d3d22382d483bU, 0xd284252254c503dU, 0xf2efd4d31a002d1dU,
  0xf9112a080211eee3U, 0x2c24473f3b172f1eU, 0x261a141dfd191121U, 0xf5dee2daf4e4fa00U,
  0xe120e17f013f9cbU, 0x182b27191411203fU, 0x1708ef0e0e2a3930U, 0x1000defa02e205f8U,
  0x3d1b2c0606031619U, 0x201c1435362d2619U, 0xf1d40de203141624U, 0x221f14110818c8d7U,
  0x304e42324234362dU, 0x202b21242b515e3cU, 0x101700f7040b3c0eU, 0x70406129302c11efU,
  0x4b46754e54654376U, 0xfbe7f4fe1e53355bU, 0xa03ffd402eee0faU, 0x4114070b0d2a16f1U,
  0xf1f3d2344402c1fU, 0xcee0d072a05340fU, 0xefeeeea0303d9e5U, 0x2a0d27123a1b2118U,
  0xf825fa020d232144U, 0xf1f806d9ebf9f303U, 0x3a0bfbfcd5d5c3ddU, 0x60d05281e2e1d19U,
  0xf7edfa051a291218U, 0xc0c5d4dae5b3d2ddU, 0x33492b33330c02e6U, 0x192927544d282535U,
  0xc0e4c3e015233117U, 0x1d00fbd8f0ecdec4U, 0x10073218031dfa0eU, 0x1324f22d1b33011bU,
  0xb8d1c2f6d4efff0cU, 0xc9e0ded7c2baefc6U, 0x91b0500f0f7ddecU, 0xc0efe2d1ece402f9U,
  0xfad2fedab1b2cccbU, 0x718021a09e6dee3U, 0x201911f3242a0e33U, 0xd3df0405e9da0ef9U,
  0xdf06de0dd9d9e5e5U, 0x8e90206110c02f3U, 0xf41f2ef324ff0904U, 0xf2f50b0c0823f114U,
  0xad2e5f711e1201dU, 0xf2fef60219e206e8U, 0xfdf5f808fd22f6f6U, 0xe2fe03110306f617U,
  0xee0e10dfe4fbd1ffU, 0xccf8131a0f14eaffU, 0xb3dcecd0c2ebd6d0U, 0xbbc5e6c5c7bcd2cdU,
  0x161f01dfd3e8bcc3U, 0xeb1814fbdbddfa06U, 0x9dbfc08f90d2821U, 0xefff92019f011e5U,
  0xe9bff7bae6ea0de3U, 0xbdfeffdebbfdbebU, 0xe0012e600e7fae0U, 0x2e22210b291affecU,
  0xc8f6da07efe4da0eU, 0xccd7d8fdc2d8ccfeU, 0xdfd4e2db06edd7f1U, 0xdbd9d4e6fae8cff0U,
  0xc5ccd1f6edcae6efU, 0xe5d9e6c5a8bebaacU, 0xc4b3a8b9c8e5d1e5U, 0xd8c1e3c9d4c0dcb9U,
  0xcaf2ecfc0401efU, 0xeefa17ee1af9eae0U, 0xf003d506e003ffebU, 0xd800d8e9ffd20102U,
  0xf807d6efd4fadbd6U, 0x33fff603f30917f4U, 0xe8e220041cf3f600U, 0xd7ef06ebcdf4e7e0U,
  0xfafce2f7f0edd5fcU, 0xfb11efe20ce9d4f7U, 0xe90409082806070eU, 0xbdc2bae3c0d8e8edU,
  0xc9c1dfdcc0cfdacdU, 0xded0cec9efc5d3ceU, 0xd0c0f3f6ddf3cdfeU, 0xd6d6ddd2c9cbc7b7U,
  0xdcec120905f507ecU, 0xe70ded0e16f61300U, 0xd8eaf0d8f2f1f0dcU, 0xf6e3ecd0b9bdb3dfU,
  0xdfe3c2fafff6fdc6U, 0xf6d0fac2e9dbe1d4U, 0xe0e7d7dcfdd0fbc8U, 0x111cf4ed0b01dbcfU,
  0x1afc1dfd22252afdU, 0x5ebffcacbe8eb0cU, 0xf1f8d3fbf9eb09e2U, 0xe3d0d4c1c0bbcdf6U,
  0x8f519e9f7e6c0efU, 0xd1df07fef1d7ee00U, 0xdcd7d0ddf7e3ead1U, 0x3cbeaffe4d6fceeU,
  0x1c052b33092517f7U, 0x14fdff2b0225ff1dU, 0x11f3e2181502020eU, 0xe10deffa0a11e8ecU,
  0x8eaf8f2190b21e3U, 0xd9e2f509d2e3fbf1U, 0x121119e6f9f1fdf4U, 0xf3fb102007e011ecU,
  0xe8e00101e7040411U, 0xf6cb04cb02cbc5eeU, 0x291a2c170be5f8e2U, 0xdd0d050bfaf6210fU,
  0xf8d5dfcfdbf1e102U, 0x11e1e60fecfbf405U, 0xf0ee09ed03f40bffU, 0xf2fc21f8eb0412f6U,
  0x122818030c250722U, 0x28081125011c012cU, 0xfe200d1aec0fe820U, 0x242b0c15361f0d24U,
  0x362719211f1f3611U, 0x1d38433415060dfeU, 0xeeff2d2526034106U, 0x150bf1fb29181bfdU,
  0xfef9141a25071ef8U, 0x6202b160b42040fU, 0x2707082202261729U, 0xfcf2062502fb0126U,
  0x2c1909fe2b2d1017U, 0x2e3127123e232c09U, 0x110aea031b1a2f35U, 0x50cf211fce40ae6U,
  0xf7253d1a30171222U, 0x1c0716ff1d082631U, 0xc01f9090ae6ee2aU, 0x112c03f325fee520U,
  0x12381d0b30210f18U, 0xf10901310a211b18U, 0xe615e90f01e2e70aU, 0x11ecf4d306e4fdddU,
  0x9d8e0daddf1f7e4U, 0xea041a060a06070fU, 0x260f3303feffd9daU, 0x4853373c53191e15U,
  0x2243e1e432e492fU, 0x190c01e51bfef7f0U, 0x32c2b0e02eb0ffcU, 0x27f51b0e2f040622U,
  0xf31b0de6ef0d23f3U, 0x221f10e806ebf1fdU, 0xf116032ef308e510U, 0x24f62333311efc1fU,
  0xff0607323c100737U, 0xf3727101eef091cU, 0xfaf1f50133fc0c27U, 0x1b0e18f806fd17ffU,
  0x1f6e1e70afaf5e6U, 0x18f8fee1e5f6dd00U, 0x102afa18012015e3U, 0x170e01eff820edefU,
  0x25d803eb001ef71cU, 0x30070bfb0cf50be3U, 0xf10e2c141d162001U, 0x19d81814f8f702faU,
  0xf53b25e308fced11U, 0xf272811113905f3U, 0x1417f62907151417U, 0x11cfd9fbd2e4e1e6U,
  0xe30912f0fc1d05d6U, 0xf812f81af4e90f04U, 0xebf0081107011808U, 0xebedf2e0e1080f0dU,
  0x19f9e8e317090beeU, 0x1d2725211bfb0f0cU, 0xddebd7eefad614f6U, 0xf8fb05e31715fed9U,
  0x19fdfb2d281b1c0aU, 0x30240d3afd280c24U, 0xf0fefdd3d312f2eaU, 0xfdf60103dac8cfe4U,
  0x614350000fb1e0cU, 0xd6f1e0f21711f11dU, 0xf6efd00107fddcd4U, 0xdcea08fadeedc9ceU,
  0xf3dae1b2f804fa08U, 0xe3f0f6d0cdd4f2c1U, 0xe8e0e9e2fbd0e8cdU, 0x22051e1006fa0b16U,
  0x5e018d906ff190bU, 0xdee1e705e7fbfaf7U, 0xf8d900e9e0f9f9daU, 0xf8e9e2dcf5160bf4U,
  0xe81cffe007051ef1U, 0xedf8ff13f1f01700U, 0xcef8e6e6d2eae3d6U, 0xe8fa0ddbf1d7e6f4U,
  0xdd7e2f0eee7e4f8U, 0xf2f8f2edfe0ee109U, 0xfc13fc0804eb0b0bU, 0xcbd1f1e3dde4e70eU,
  0xe2e0ca0cd5d1f0bcU, 0xec08ecee05c9fcddU, 0x80517eb0ae8fdfaU, 0xf7e4ffe0e3ea1306U,
  0xcfcac8fee0c4f3bcU, 0xd4d3ecd7d2c8f8d8U, 0x23e9f9ebf00af2e1U, 0xe9fe0fece6fcf3f2U,
  0x1f8f9f90ce503e9U, 0xcedfedf0daf914eaU, 0xec1a1a00d808ddd6U, 0xef182025fbf3f2edU,
  0xe9150a0d01fb0716U, 0xe20f0ad0f1e2f0fbU, 0xeaeb052003f4160cU, 0xf4e9e9041afc2105U,
  0xfd0bf3eaf802e7f5U, 0x17211511f90fecd3U, 0x211c342a1832091dU, 0x190c0117eee4fe26U,
  0x30dd6f0f71c1118U, 0x60f1a14f5180ce0U, 0x1716ecf9f7f1e20eU, 0xe71416dbeded11ebU,
  0xed0fe80d04e6f312U, 0x3e32300918f10bdcU, 0x1a17382b1421392cU, 0x2c38f71423231806U,
  0x18dbeed8dc19e613U, 0x130904f2d514fef4U, 0x152018320b141100U, 0x70716391f431b13U,
  0x22131efc182214f4U, 0x1a112427071c0104U, 0x25f5ef33f602332dU, 0x24f913ff1ae8f20eU,
  0x2d1a210e1e2e10f8U, 0xf9fefa393e1b0f2dU, 0x90d0a1518f30d1dU, 0x1ff4100a04e7130aU,
  0x251620371efd382dU, 0xed191410ef2cfff4U, 0x3607f7fee70b0be4U, 0xfffef40317fc213aU,
  0x2e1c12181223fc03U, 0x90d34030d311545U, 0x70d2d0215251212U, 0x8feff1010172b22U,
  0x2a3a57375e58433bU, 0x280a3a100e280d3aU, 0xedcb1522202531U, 0xee070a1e151703f5U,
  0xdeee1b00fc1014fbU, 0xf8ced3d601ece80dU, 0xf12d090ef1f4fcd4U, 0xfe042b0b250e130cU,
  0xec120006203d3a14U, 0xfb37140f26fc03fdU, 0x3330fe1637041517U, 0x21fdfa2712270afdU,
  0x40410ec0102180cU, 0xe8ec12ebefea0118U, 0xdefc16d8f904fafbU, 0xffe32fd0ff41e18U,
  0x1f2614e3faf6f1fbU, 0x5da12d90b1bfdeeU, 0x12dad5d0fad803e1U, 0xdb2133f90210f113U,
  0xe81708e9f5060c0bU, 0xf9dcfcfdf7f20417U, 0xd8f813cfe2ebcde5U, 0x1d161718eae011e3U,
  0xf705f6eb070c0112U, 0xd4fdedfce7f31bfeU, 0xc8ee02e2d1cdcdfeU, 0xd2e3b7c4d9cbd6cfU,
  0xdee401c9fbd0cfcaU, 0xe21c0aedeef1dbf3U, 0x3dbe6020fd4ded8U, 0xee2d5d4ecb7cef5U,
  0xdef8e5dce5f5f807U, 0xbdeee600b9c1dde4U, 0xe1d4d3fae8ecf9d6U, 0x2122f2fee200e6d9U,
  0x1fd11fe272f270cU, 0x100aedeee4ddf3eeU, 0x1f2c0b26f01506U, 0x1032b1700202804U,
  0xd2f7ecf42a0f140fU, 0xf205e20d13e0f4e9U, 0xd3ccd8d6f3c6d3ebU, 0xf4f5d7d0de05dcefU,
  0xa0203f8e805f1f3U, 0xeb0cf50e0b02230bU, 0xbeddfdecceefedfeU, 0xebd5ffe5eae9e7faU,
  0xe2fdf000160ff3fcU, 0xc4dac7ea0a02fefcU, 0xdcc3b3a9b9c7bcb4U, 0xe1cae4d5c0c6b3e5U,
  0xd0d3dee6daeed4e9U, 0xe3d4c703d7feefe1U, 0xe0b8c5ede3d6dcd2U, 0xed161302e2eae2d2U,
  0x1a2cfc020af2f620U, 0xe7d3e812f9160d16U, 0xddd6c7e6f3c7bcf3U, 0x3ef0cd8fbf8ccc7U,
  0xf201d2ffb05feU, 0xf1fde1fe0aff2325U, 0xf8eef7c8f4e6e204U, 0xf2403e8f3f5d3f5U,
  0x71028222f0c04f0U, 0xfcd9d6f1d9e01f1dU, 0xf3f7e4e4180f04f3U, 0x16230e2e0e1014e9U,
  0xe6f80df41d2efc09U, 0xe8f80bdbdee6e0f7U, 0xd1f3e7e10703e8e4U, 0xbcc7fbebf6e2dd04U,
  0xcfb6b5a7a9d2c5b8U, 0xd1dbe1dfb2babbb3U, 0xfcf1f6e7fdd1c8f7U, 0x1afd19fe13040c1aU,
  0x2f2fc120a041227U, 0xf5040fedee0001f7U, 0x10c280bdd180bfaU, 0x15f4050e330d0f23U,
  0xb9ceb1ede4d800f1U, 0xa1b781abb7b89e8fU, 0xf9ebeecfddbda597U, 0xfc251d1f41331e03U,
  0xb5e5cbedede0f5ecU, 0xdee9b1ccd5a4dbcfU, 0x303322f729f6f8b4U, 0x1e1103fc0a092d29U,
  0xe9dfbfb6b3ed0500U, 0xbbb091a0ba9abda8U, 0xe7d9e8d6cfe9dbccU, 0xcea3cca8e4dbe9fbU,
  0xfac7dbd1ceedecd8U, 0xdfe2efcff8eabed8U, 0x29f903daf5c6f7e8U, 0xa1ff2ed13dd04e7U,
  0xc9ebd8d0d0fafe0bU, 0xd3bbebeddfc8c2c4U, 0xf3102d0514f0e800U, 0xd6d9f1f7eef810e7U,
  0xbaab98caaab7afecU, 0xc7e0e7cba5be9ac1U, 0xfb28201d0317fdfbU, 0xf9ff352ef7f600U,
  0xf2e7d6cef1f6fbd0U, 0x20eff418ea0dfdcfU, 0x6e7f3f4ddff111cU, 0xcad2daabdcd7e5ceU,
  0x4c6c2e3dbd1ccaeU, 0xfbe8281cf7ff0fefU, 0xb3bcc3dce2d2daf6U, 0x4d5ec04f0e8b7aeU,
  0xe9f71ae7e90ce9f0U, 0xe3fe02e3e41e07f0U, 0xcf9c8c2e2c8f5dbU, 0xafaf616f61cfc04U,
  0xfdf3ed110a26120eU, 0xccdce20af7eff9deU, 0xe90403f8d7cdd5d4U, 0x131a0d0c07fb0d0aU,
  0xfb1b020221e912f1U, 0x390c313d25fbf21cU, 0x1f1d1cf7040f1c03U, 0xf00ee2e523fa060dU,
  0x24072bf216eee51bU, 0xe610e7e4f90e0f24U, 0xf2ec0fd5f5f1f7f0U, 0x180c10190c13e613U,
  0x3932120b312a1023U, 0xafdea1b07073603U, 0xeff1f1e10bf12418U, 0xf1f1fce1042728f4U,
  0xe9bed4ffd7f7d7dcU, 0xfdead7fbfdf2d2f6U, 0x1929f704fbeed9fcU, 0x274a2e2c24362928U,
  0xf1f70d0532231430U, 0xf15eaf9eff6ced3U, 0x9fefeff0215f5e2U, 0x26322c292c1510feU,
  0xef5f3eff91e110fU, 0x19fed1d502f3e8U, 0xe6d6d6cfd50ada1aU, 0xf4210303f2e8ee04U,
  0xc8eb0ae3e9082d30U, 0xfafdcee603d0dfc4U, 0xe00cfcf3fcf5efe2U, 0x381e1b0022f8eb16U,
  0x7f61610eaee0309U, 0x308f6fdd8f2fa13U, 0xfcff2bfcf3d1e2d2U, 0x4c2f194317393732U,
  0xf4021b16ef1df630U, 0x2c0c07f51cf9f605U, 0x5530414932350bfcU, 0xf9071c060c080537U,
  0xe16f6ff19ed1a21U, 0xe0e01bf00a07f40bU, 0xfce5faf6f4f3effaU, 0xdbf6bdd9ee1218e9U,
  0xfa10f81f05fef0f0U, 0xf4292b2b190813f7U, 0xe4e41117250fdef2U, 0xeefd1a260df8dbfbU,
  0xe51d1c1def0004f3U, 0x1c1af113e6d100U, 0x1819002a27fe1df7U, 0x13f11e0e0f1efafaU,
  0xfafe08f81cf91805U, 0xfe4f501f5030305U, 0x191f190f2126fd0dU, 0xebf2e901f8d21810U,
  0xf2c9d7f9cdd901ecU, 0xfef4eeea03f2e0e2U, 0xe4e5ec2e08293813U, 0xc8eedcf101d5f80bU,
  0xb0cee09ebf6f2f4U, 0xfa0905f5f91f170dU, 0xbfdbbfcccbc2f101U, 0xbf3d2bfc7eebbddU,
  0x2c0722faf2f5d90fU, 0x52bfb080e073b0cU, 0xbfd6c2dbcdf70000U, 0x7ead8c9ccd6d6bbU,
  0x6fe18f10406ff00U, 0xed1816f1200df012U, 0xefe7cac5bac9f7d6U, 0xa05d7db07ea0bdcU,
  0xef22191bfe031af3U, 0xf0eeed1ef3190320U, 0xfeee09e402f7f4f4U, 0xfd01eaf61320161fU,
  0x16f1e3e9f118f810U, 0xfd0ce2ebecf2f91eU, 0x2edf71201dee81aU, 0x6dfc2e2d40ae4f0U,
  0x141c2f17f00bfefaU, 0x192f154b4e3a3712U, 0xebdaf2fb04200235U, 0xd1cecdf303ebf6c7U,
  0xf2fb17e6fbfdf609U, 0xd7dfe8d4d311f51aU, 0xef13170617fc08dcU, 0x1210200f230d0b10U,
  0xb29352a2d303818U, 0xd2ecedeadae40323U, 0x6e7e0d9f5fbdde3U, 0x1d2839140711f004U,
  0xeafc2622160e1820U, 0xfbd8edc7c8ddf2d5U, 0xece0f4d9ecd9f5f9U, 0x2d1bfe09111411dcU,
  0xf109130419f527fcU, 0x928121ae3f3dddcU, 0x201218fcfc232133U, 0x1f501162a002302U,
  0xf3eef4281dfd1012U, 0x2203fd03201b300bU, 0x1ff812150d022b1cU, 0xf7182efb25f9ea13U,
  0x4222312614f60f2cU, 0x15364c3b36373d2bU, 0xeeff71529071117U, 0x2300fdf21efa111eU,
  0x270c390c0c230814U, 0xd102405192b080cU, 0x33f90121052c1f2eU, 0x19411d37273a3b38U,
  0xf30111fc182e0625U, 0x517eb09091005f6U, 0x3b290f150f261b09U, 0x2a34512546354347U,
  0x2b3e44443c1c1ff8U, 0x4a403f3a40411a15U, 0x5c5338374c374140U, 0xdbfbfe03434b1d2cU,
  0xecf3dffae8e4ed01U, 0x43190c1430090af8U, 0x131931162c01090dU, 0x120dede9e812171bU,
  0x1ffb1a17ecf8f1e3U, 0x281d43363a1e2f26U, 0x3b3d24424b50514aU, 0xf5e403f6dce9233fU,
  0x15fd03f71ef3eafeU, 0x17383a3e29140309U, 0x17092b08191d1c32U, 0x1a362336140213fcU,
  0x1f0b323507192f2fU, 0x1f1f37fa0c151310U, 0x202d434220483324U, 0x251c472126494420U,
  0x16f1ff330d154438U, 0x509d7fde60bebffU, 0x9121afb05f2f3e6U, 0xfffd0019fe25380eU,
  0xf6161b3113071311U, 0x37312d1afa042530U, 0x384d2022203d413dU, 0x37143145193b3c28U,
  0x503f2a1614494114U, 0x33485c3c54263431U, 0xb3223101e321f27U, 0xfcff1c0a13141d27U,
  0x75612e331e0b210fU, 0x31194d3858693d48U, 0xe0c3e6f7fe0e01eeU, 0x9eee4ebe6ddf0e9U,
  0x254740223810fbfaU, 0x1441423c4d2b2e32U, 0x2308fc0b27f8f9fbU, 0x1508f310e5f2e5fcU,
  0x1d32050803f903fdU, 0xfc0d0702f0f82004U, 0xf31bec0cf10017e8U, 0x1c16fff9e90ae8f5U,
  0xf09190ee5000d02U, 0xfee21704fbf6fdedU, 0x12fcf7f7020f0701U, 0x10f71af1f1fa1af9U,
  0x1aeae5ebfc17ecf4U, 0xdae61110001b0708U, 0xdc020febf1f902ecU, 0x11000bf7e512e9e9U,
  0xddf6eef311031017U, 0xd7bee9fceae5d6e5U, 0xeccdcdb5cccfedcfU, 0x24210c0c18f306ecU,
  0xefb201f2efff91bU, 0x51b120424f70406U, 0xfd20f9e70f11e8f8U, 0xbfbfbf8fde7e71fU,
  0xd7c9dfbfc9f7ebe2U, 0xcbd6f8e6c9d0c5d9U, 0x150d30fb0904f109U, 0xf5fd0b0c0c0b3018U,
  0xf0f3c9cff2f5faf4U, 0xe3ece0cf05dae5eaU, 0xece5f910d7d7d5f4U, 0xeeeef2d9defb13f1U,
  0xe7e7c5de03c3e9deU, 0xb3bad3e2ddc0e1d2U, 0x3230c01e9d9c5d2U, 0xfef907f81019f517U,
  0xd5f605d6de0aec03U, 0xa3cfc5b6bba5c3c7U, 0xddbfcde9cdbbd6c9U, 0x2fb131209d9f8cdU,
  0x6f72015f9fdff01U, 0xda0ce2020afedf13U, 0xa1ade120502e5e9U, 0x13ed1716f502f3e5U,
  0x9e0d7071600f81cU, 0xe3e3f0170a000edcU, 0xecf7e5f612f60a0eU, 0xf3ebeafef3e7e605U,
  0xd6ea07e8dbf000faU, 0xf814ebe508f4eed9U, 0xcad3fe12f8382b06U, 0xa1dddbd8babccfc6U,
  0xded3f6c79cc7c0b2U, 0xf8ee011c09e112d7U, 0xc8ebd7e1ebddd9f1U, 0xb8c7cfcfbbd2a6e2U,
  0xe7ddc5eeeaf8d2c5U, 0xdfc8b1e1c8dce3b9U, 0xe9d6f2ced5c9cdc4U, 0x16ec031001f7fed2U,
  0xcacae3bcc8fe02ffU, 0xd9c8c1bfa7c7d8c3U, 0xf6ccc4e6ecc8c1aaU, 0x3e9dfe5e7e6e3daU,
  0xe1c4e2c7baebeaeaU, 0xf0ddfaf1f9e6e7c6U, 0xcdf1dcffffece116U, 0xb4c5baefe8d8d2d0U,
  0xebf0f402e8d6ede3U, 0xd8f7e7ecf2e21224U, 0xbff7f4ddefdedfd8U, 0xd705dbd4f6bdd7bdU,
  0x10ee4d30dfffde3U, 0x5ee02dfeae1d808U, 0x17e2cecbcf06f2fcU, 0xad3e7fcf71217f8U,
  0xc9f1dc02f2edd709U, 0x8f3bcdbcbcabedeU, 0x5e8dde1e0f8e6efU, 0xe2f4e2cbcbfa0005U,
  0xeefddce8eae8eee0U, 0xdefe51607e7efdbU, 0xf91b1df415e2f9ecU, 0xddf512eaf30efef1U,
  0xf0dafcf0e202dfeeU, 0xd6f0e7d3e2d3f6ddU, 0xaffe4c1e7cffaecU, 0xf4161919f31d0fedU,
  0xeef30328120e2d04U, 0xebd6ef0de70e05f6U, 0xeb05fd02f9d1d5e8U, 0xd4ddf5f9f2d3dde1U,
  0xeddb07e2fcf701fdU, 0xfcefecfb0cf508e6U, 0xdb02d4cbe6f0d4e1U, 0x29f6291e2010e3f5U,
  0xb0508fa0429f512U, 0xf60f0c060124042bU, 0xedf6fec8e907180fU, 0xf0cceaf7d9d6c3c2U,
  0x1cf5110ad6fa06caU, 0xf2041b0e0b210f05U, 0xd7e1f2e8fae7U, 0xe5d5fef7eef6ff0aU,
  0x707f2e6eef4d40fU, 0x431403e111d0826U, 0xdae5e9e4f316f8f6U, 0xa5abb0a0a2b4c6cdU,
  0xb0b0b3abbfc5c5beU, 0xb59bc7abbdd1d6d0U, 0x1f0e3c1d3cec6e6U, 0xf107e50cf411f3e8U,
  0xd6dfb8cd02e1d0d5U, 0xdbede2de0505e5ffU, 0xdcc0babaecf3f4fbU, 0xd0d3d3cfefddf7d5U,
  0xbcced8e9c8decfffU, 0xf8d30201d2d5def4U, 0xf3f709e6f3d7ff02U, 0xe2f1bfcee4c703e5U,
  0xc3f9dcbce3dddfeaU, 0xceb2b6b8cad9c1bcU, 0xb1cbe9dac7c4e4cfU, 0xf2e9f8ebc9c8d4b8U,
  0xf7eee0cef8cbcfd1U, 0xf508f5ff08e2fd16U, 0xf902fe1a071c20ffU, 0xf40c13e10a1620f4U,
  0xee901ffdcddc9d4U, 0xedfbff08010b0fefU, 0xfbe90affcc0af1eeU, 0xe6caf1d7fed2080eU,
  0xb0e5eee5cbf1f3caU, 0xbf1cfbfbebfccd7U, 0x1d10011e01da06cdU, 0xc2f2d0d70f0dee07U,
  0xeff0d8dddbe8e3d1U, 0xf9f906dd04eae9ffU, 0x1a141ef8e1d4d7e3U, 0xdadcdef210fee30cU,
  0x3931193736111cfaU, 0x1d35163b14172e38U, 0x2a31122a0d2e44U, 0x516dffb0902040fU,
  0x7280e1603f701f3U, 0x918ef1efceef924U, 0xfc172d330f15251bU, 0x102f2c0ff2f3f303U,
  0x221e38173824062fU, 0x11310804071e1615U, 0xf5f213e2171cfb21U, 0x12c121727170af1U,
  0x120503f90cfb13ffU, 0x11fe031bf903d5f4U, 0x2117010b1d180dfeU, 0x41d191408381a02U,
  0xe3f7f5041703ee0cU, 0x170bfa0719f4e0e0U, 0x2125f906fb04fa19U, 0x2437361923091efeU,
  0x1b0af90a160d0812U, 0x1e38011f1df62139U, 0x243f0a3d2f083235U, 0x3d1a4b1c44262e1aU,
  0x6121127032d4427U, 0xf51407fb16fb1320U, 0x1915f5ff15081ee5U, 0xe60c18ff00fef310U,
  0xf3d4f4d7f00edc0cU, 0x416effc13fce4d9U, 0x23f61ef71e1e1307U, 0x91427190c292e0cU,
  0x1bff29031f1922f9U, 0x23fe21f7f52e3136U, 0x171e4a211c351efcU, 0xe24380601350f13U,
  0x193901433f06160aU, 0x2e14142d15302c38U, 0xa282a2f2d392820U, 0x1f3514213a0e0402U,
  0x17021ef82115182fU, 0x16fa2d0e190f3102U, 0xf7310a0dfbfa25f0U, 0x121201f2e8181121U,
  0x141e401d1ffe1d00U, 0x24334d5722081d21U, 0xeff303322d05071dU, 0x2f1315110e0e0a13U,
  0x123f1b1f1d30310aU, 0x2024413532a3e1cU, 0xedf4f8fb23fc022eU, 0x19f716ff0708fff8U,
  0xf91ff4e7fb09ff01U, 0xe61d1b171c1011fbU, 0x2001f80e181b10f7U, 0x6fb1e322212101fU,
  0x29201c283b352b3aU, 0x2ee33373e0f120aU, 0xbf5f717e6fb1326U, 0x3728250afb11f9f4U,
  0x28301f352236340eU, 0x21110a291c2c0518U, 0xf502f9ffd3ffe80dU, 0xa0a0af9f008e4f7U,
  0x1200d091821efe8U, 0x332328f90ffa03dbU, 0x372d3c331b331b24U, 0x234f302c4118344dU,
  0x1b3c3a3437204b24U, 0xf00206091b1b2a06U, 0xf8ffee0d0ae2e714U, 0x26fde91f1a11e2ecU,
  0xe8d0eedf0609fff6U, 0x171ce2e70ee5db14U, 0x6e2110bfaf831f4U, 0xe5081afc0f22030eU,
  0xf607ebe3deec0defU, 0x1e0ef900faf713eeU, 0x301f51c0d0b1008U, 0xf00f06fa2a112a17U,
  0xfeecf8f6c9e7e818U, 0xcf204e6ffdc09d1U, 0xeef5fcfceeefeaf9U, 0xeae619f901e6ee07U,
  0xe41610131dfc0c0fU, 0xd2ffdfede2f914f5U, 0x8ebf9d107f404d7U, 0x14fde5e604030befU,
  0xff1019edf2dff8f0U, 0xfedb0015fc08071eU, 0xd2e8c9dfdeee0efeU, 0xedf3e8e6effa05f1U,
  0xebd9dee41014f402U, 0xe5f7fbe802fbfed3U, 0xd6fb06e0f8f2d0cdU, 0xed0e0814130807f9U,
  0xa1e1f15f30be60fU, 0x16f8e9f0fef01e27U, 0x5fbeafbf00805fdU, 0xede200dff0e70fe2U,
  0xcbf0d700e4e4edebU, 0xe0d1d2eeddedd8c2U, 0xf4f804cdd9100e1cU, 0xfd2e1c3ebf3160cU,
  0xc4b5dae0bcc6f307U, 0xed10ea08ffe3d80aU, 0xf8fcc6f108e7cdf0U, 0xfafdf3edde0ad8d0U,
  0x10e1f30101fd1d17U, 0xccfbfbf60a08efdcU, 0xcfffd701f5f400d4U, 0xf20cfde7fc02e1d0U,
  0xd00013e5fb04f3faU, 0xede20804f6f605d0U, 0xf8ded715121110f8U, 0x725f713240316fdU,
  0xb4dccfdf1cf3fc0eU, 0xc9d2d0dfc5d3c3dfU, 0xf3ffe9d5fed8ebe6U, 0xf016df09edf902f2U,
  0xeaf8e6f8fee10003U, 0xfeee1404ea0a16f1U, 0xe0dbfd0dfa00dd16U, 0xebfae5d4fddc010bU,
  0xd2dde7fed5dbcfU, 0xf7d0f5f8bee9ebf3U, 0xff02d5e1e6dadfcaU, 0xf9ebf1eff9f2e1e5U,
  0x11fef90edf05dbdfU, 0x2f5eadf0c06f51dU, 0xbad6c6bef3cf01d6U, 0xd6d2c1e6d6bbe0c0U,
  0xfed0c8e8cfbfd9ddU, 0xf2f3de07dafccfc8U, 0xf9e0fcded8f7d9ddU, 0xb4cbbed5d4e3e5d1U,
  0xe5e1d9c6cdcbcfdbU, 0xaadfcde8e2cccbbaU, 0xbfba96c2c29ed6d0U, 0xf404ccdcd3c4acc2U,
  0x14010d0be8e6f5ecU, 0xe7e91cf200f4ea0eU, 0xe8dde6f0e6dfe5d3U, 0xf9eae0d1c0cae0b9U,
  0xc103d801ebe9edcbU, 0xbbcfb7b9c7bae4bbU, 0xc0ecf4eab3bbc9bfU, 0x723fbfee9ccf2c5U,
  0x900f0ffed02e0e1U, 0x10a09080a00f4f2U, 0x11ee07edf10516f7U, 0xf5f1f9ffe80f1601U,
  0xcdf007e4f9dbd5e5U, 0x11e7dbf402c6d7ddU, 0xbede102ee1aed1dU, 0xd2f0f1c7e5c5e5e1U,
  0x10effef7d9dbdaefU, 0xf6eb21f71bfff4fbU, 0xe0ffe5d807f3f605U, 0xe7dcd8cd00e9f9f3U,
  0xea03240cf5fbe3d7U, 0xf108fc06f91f262aU, 0xf000fe01faffea18U, 0xf104e7e8fe0fd2e9U,
  0xdbfee6d306ecd20dU, 0xd4d0d8e708120008U, 0xffad4c5e2b6c0d3U, 0xfff624fb17faebffU,
  0xfe062f311f1a1913U, 0x4e512c2b2039072aU, 0x27150c222832203aU, 0xde04dbde17db0011U,
  0xe415e60108ebef01U, 0xe2e9fadfefd506feU, 0x1ce30902e90809edU, 0x32350a1213012329U,
  0x263032351e252f2fU, 0x2b341f1f011a2d0eU, 0x18f3041f2e1f052dU, 0xf0f113ffe7e5f6f4U,
  0xfad70ff5f9e605d4U, 0xe0f6ecfe28131f07U, 0xe00ff9f7f31be4e6U, 0xf3ed0dfd16f71d0eU,
  0x11fdf3f9ff1ce41cU, 0xe708e6f5eae1fd0eU, 0x383734ff0918170cU, 0x492539333d583b52U,
  0x25201a3f3c343e25U, 0x2433102e323b1d36U, 0x1afb3a12220d2f2eU, 0x181aeef606222a02U,
  0x4214321f28332015U, 0x2621112939515646U, 0x3117202e2c3b1b34U, 0x2f0a04070ef50509U,
  0x1015f40e2b2c130cU, 0xd290631fe2921fbU, 0xfd0bfa26220a332eU, 0xa1d1df2f60427U,
  0x170823e71517f911U, 0x9180a140c0601fbU, 0x222cfd2b27f20f12U, 0xfe021f110feceff0U,
  0xf7f60de6f7ef0122U, 0xe5f1fce3e7ddfb0dU, 0x24281816040a04e9U, 0xf621f326f9060a1cU,
  0xe4f0e9ede3ebf30fU, 0xf8ffebecfd06ef05U, 0xe2fd0b0c1af10e0eU, 0xebf1d4feead90e08U,
  0xdde5d5ccdee3dbe9U, 0xd1fcd8fef5d6ddefU, 0xf919ebe21bfddb06U, 0xd8d1fcead4f8e00cU,
  0xfbf5e405dfdfdbf2U, 0xd1d6fcc1cdf3d3f7U, 0xdad7fbe6ebcbf2feU, 0x4d2e104eae1ead4U,
  0xdff8ebf6f8dee3c6U, 0x4f7e0eae1dcc5eaU, 0xe0caf9d7f6e3ebfeU, 0xdd903cbf8e6f8feU,
  0xeddae3e1ec05dbe0U, 0xd8cbf306eadddf1eU, 0xae20d1108d8fdf5U, 0xfde5f2e90adfeee6U,
  0xf41806281e0df2f3U, 0x12fb0bfb31241634U, 0x23f825f5f1fe2a0dU, 0x2c0df4f31b1c2918U,
  0xdbd613fc2df201fdU, 0xfed3fac30601d8d1U, 0x50dd9dceeddfddeU, 0xcdf5000309dfe702U,
  0xf7e0edd7dbdffad9U, 0xd1f6d0fbfec7dae7U, 0xe6dabce3d5faffeeU, 0xfbf9ebe605e907f1U,
  0xe9d0fcf3dbd0e204U, 0xfcf8e0f8f5d9d7e4U, 0xfbedf5e6eef111eaU, 0xd6f40dd0e8f2db04U,
  0xe0ad6d7fcfbde0bU, 0x3efedee19ffe7edU, 0xe9e41cf6f4edf016U, 0xd5e00ae40bf700e9U,
  0x5e0e0d8dfc6f106U, 0x100412121adefcd9U, 0xf512e8f3150af726U, 0x15f321f10926fa07U,
  0x102e22fa2021f124U, 0xea000c0f01e61523U, 0xfa0ae2e3df0d0af3U, 0xdf1b0120efe6d9f3U,
  0x2c08effaf2e71411U, 0xc0a0a290a12ededU, 0xaf2fb0bf2ef0e2eU, 0x1326f8f916162a1dU,
  0x24fb06f919140910U, 0xfd03010a2337250eU, 0x2e01120f341d0128U, 0x30143111012d2b2bU,
  0xf0628ff0e0cf902U, 0x19010ff306f6e7ebU, 0xb0420eeecebde25U, 0x201d0a2fed2e1cedU,
  0x6068254839212ffcU, 0x2f32254f5c4e364cU, 0x48464f543322372aU, 0x3817361b2e312448U,
  0x1f2b2e2739231008U, 0x2c22441830ff1d0bU, 0x2d562222271d2e13U, 0x1f4a2133224b1c41U,
  0xfc1e2b2704071d12U, 0x3d1c2524ff1e3115U, 0xe0e0a1e29310328U, 0xd410161617ed1d37U,
  0xf110e6deed0dddU, 0x10eb0718eb010600U, 0x21a01e713112514U, 0xf2ef0ef80128fc0dU,
  0xf6fb1c12f1f325faU, 0xd2b200b21ef2d11U, 0x14ff0221fb181a19U, 0x2bf4360406f6082bU,
  0x5b4b4d323d3f2c19U, 0x3a352d4e605a452bU, 0x2338430f4f36353bU, 0x453e4d2b2a192e15U,
  0x443455442f2a424cU, 0x565f4e5b415c355cU, 0x3339174054365342U, 0x493c5e3823533f3dU,
  0x2c371f40565a6f60U, 0x30382444591b3644U, 0x482d471239093941U, 0x52551a43402d4931U,
  0x492d46413e213a18U, 0x2a501e1e122e2c27U, 0x1c492b2b13423b40U, 0x3d55455c2758511bU,
  0xb1f3c164147331cU, 0x22081c1200184413U, 0x1627010207161134U, 0x3d110904f9280c06U,
  0x2447162609140d35U, 0x23232a2e4c0a4948U, 0xa153c13385a264bU, 0xfb18fb1024fe0842U,
  0xf1fd1bfe02011607U, 0x282d3f43392d030aU, 0x431c320e35452c38U, 0x2106483c332a3a1eU,
  0x1b1a2e0d0d153129U, 0xf7f20627270d01e7U, 0x221a1d1604fc22faU, 0xf0fd082722113514U,
  0xf120f0331212c0bU, 0x4041f0d07f01105U, 0xf516f214071de8fdU, 0x330e2a19281c0312U,
  0xdf51538ff012103U, 0x8e60a0feefd190dU, 0x4ea1fef02f101e2U, 0x18f6fd272a061415U,
  0x20321e15253527f3U, 0xec010a20091f0d2fU, 0x20f1ffb1b08ee01U, 0x141b04d2f2dadfecU,
  0xdf1c2108fb100f0bU, 0xf3f6f80311052124U, 0x2e301b1d1d11fefbU, 0x1000091f28251525U,
  0xfd04032600130d2cU, 0x21062802f121fbf9U, 0x42efd15fdf612f8U, 0xf607e7e5ee0dfd17U,
  0xdf10fee1d9e1d9f2U, 0xffedf4ddea0e04feU, 0x2a26210efe090613U, 0x16fa20130a1b1e1bU,
  0xd6ced20a05fdd903U, 0xfcf7def418ece40fU, 0xe8d0f7f900ea05f6U, 0xdbccfafadcd6bdU,
  0x1eebebed02dddc0aU, 0xf7ea0af6f9040803U, 0x26192f3a34231dfeU, 0xd70bf417edf40b28U,
  0xdbebdde1d9e4d7d5U, 0xf4cffaedbccaecbbU, 0xebcbd7bdc2edc8ceU, 0xf400edfdf8f408ddU,
  0x1b08fff60a250c01U, 0x20eaffe1df181834U, 0xedfcd504d4f8dcdfU, 0x17f50a05d4f7efd6U,
  0x20f11a210beee9ebU, 0xe8ebe4f7ed0cfcf0U, 0x6082bfde909f6e5U, 0x1b0417f4ef0501f3U,
  0xeff4fed5130f15feU, 0xd5c9e5c8e2e1f4c2U, 0xe9d9f5e5f1e602d7U, 0xe4d905e0eed1ecd2U,
  0xe5eb02d4f7e6e30aU, 0xe7e9f40201fb01ddU, 0x173722fff001fa12U, 0x251f16f5330c2119U,
  0x17140bf815e802ffU, 0x100003fddcf00114U, 0x7fdf1f61901dbe0U, 0xdefcdaf8fde1fa04U,
  0xfaf0f7eec5e7f8d9U, 0x1190b0af00df0e1U, 0xfffb0c00f9f7250bU, 0xee3d80ef2f2f0f7U,
  0xfee407f5e6f502efU, 0xe8edfcd6c6ce04ebU, 0xd000fdcceddcecfeU, 0xe0dfc1f2cef600f1U,
  0xf3e20deafddbf606U, 0xe8f2f6e6d2dcdfe0U, 0xdac3c9c2edc9c9f8U, 0xd0fceedde3dddaceU,
  0x6fa020101ef18e9U, 0xd8daf0d90d151401U, 0xecded0efe9fc03dbU, 0xf602dbe6f603c0dfU,
  0x211dfa1522130f14U, 0xe9f3e1f104e41025U, 0xd6f0eec9e8c0e1d4U, 0xe3d0c6bef1c3e3d7U,
  0xc3d3ddd3c7c2d6c6U, 0xefdecac5e1c8b3bbU, 0xd7dffccabbe0d8e6U, 0xdffbdae701d7eae8U,
  0xd8d90be4151d0705U, 0xdbe6bcc5f1f9dde6U, 0xbce7c9f2e5e1d09eU, 0xe2d3d9e0e4d4ccd7U,
  0xbfd5d6bbc4e6c8e3U, 0xe5f6e0d7d3bfceccU, 0xf2280afef0dabde0U, 0x21df011f704091dU,
  0xebdef4ebe006100fU, 0xfcd1ec0decfefee6U, 0x120c0e08cfdfdaffU, 0xe9d2cbcbb8f606e6U,
  0xeefbcae3d2d3bee2U, 0x130005e3eabec8e5U, 0xd9fe0cfcf7eaebf3U, 0xa6a1ddbebddcece9U,
  0xd8c9a5d5ccb3d4a4U, 0xdfd7fcfcf3bec6cbU, 0xf905f6dadecec0d5U, 0xb02d901faee0adbU,
  0x270f26f0e51c25f9U, 0x7f60e1f13fefe1fU, 0xde01f1dbfdeb02ebU, 0xc7e9b9cedee8b8faU,
  0xebd0cebedad2ebe5U, 0xd8dc15decec1bec2U, 0x5ebe0ecd2effcffU, 0xc6ccdbf0c2c4e1f6U,
  0xdfdd06e6d4e6e9e5U, 0xe9d704fbe1ea0f00U, 0xdbd3d8ecfef9d5cdU, 0xeac1c5f8edc8ddfaU,
  0xfeff0af4f0d5e2edU, 0xf003fef7e8cfe3eaU, 0x302cdfce0e3e7f5U, 0x8f3e2d800fdf301U,
  0x340913ed02f8f0f8U, 0x13193b12161b100bU, 0xede003fcfd114220U, 0xd9e002edfa08f7d6U,
  0xe7cfe1edb9d2d0dfU, 0xd1d4ebebd1d9e3ffU, 0xdfe301dbcdd9d8ccU, 0xecf70ae6f0dcee0bU,
  0xefc1af90119f20bU, 0xd909e5f1e50ff923U, 0xdee7e5fce4f8eafaU, 0x19191a03f1dafaf8U,
  0xe5eae900e2fc0cf3U, 0x8ec050c24f00ce6U, 0xe9f2d9f102edefdcU, 0x508da100eeffd12U,
  0xfdf1ffddfe04eb02U, 0xe9d7bec6d5bfd3feU, 0x2f11624ef08f2f4U, 0xfee9f105f3faf81dU,
  0xf7f7e8dfe310e51aU, 0xdee6e3c8e0e3bff2U, 0x2b2119df0dfbda0aU, 0x1df8fa2e1b06f93dU,
  0xdcd7eedee0ebe014U, 0xc3dedfcbd6d5dac8U, 0xd5c9cbddc4b0e1e0U, 0x6e4ecf617fcd2f4U,
  0xf30ef50df81cf424U, 0xd0cedd01e5d90ceaU, 0xd01f8e4f1e7c9f6U, 0xeef82ef81fee2321U,
  0xe6d707f0d0031ff2U, 0xfed4bcbfe0e3e9f8U, 0xece6f8d6ddfabec9U, 0xd6d6f0fedbf9d7c8U,
  0xdbebd0d0d4f3c5e8U, 0x11fe11f111e8e40fU, 0xeff1faf0343b0913U, 0xb1d8d1f60a0be3faU,
  0xe2e3e4c8dde6eab6U, 0x1cfef6f5f2e9e1e7U, 0x3010614050b112bU, 0xfce3ced9f61a12f8U,
  0xea0909e9e8d800d7U, 0xf7f31ae7ed09dee8U, 0x144131342231192dU, 0x13242131001f3022U,
  0xebfa07fdfaf8f5f1U, 0xf9ede4ec0cfacfcaU, 0x1109221d13f71d0aU, 0xdfe1228f7ff0419U,
  0xde12070c03160b08U, 0x17300eec01f1f8faU, 0xebfb281110fe182dU, 0x2317fdfffee3f103U,
  0x5162d02f6070c20U, 0x24f7110902473a1bU, 0x262303fcf1021627U, 0xe7ef08d61c0c1a0eU,
  0xe905d3e0f4e304fdU, 0x250722fb19e50e25U, 0x191a1c2b30312e27U, 0xd0ded5c6e9cff8edU,
  0xf718f7ef01e8ecc9U, 0x2514204b301b2713U, 0xf824102f29032b34U, 0xf8f1d50f0cfb1019U,
  0x182823ededf1e0dbU, 0xafc2b1425214210U, 0xf7090916220f0737U, 0xdde7eff612e9081bU,
  0x406f8ef03dffb04U, 0x263013161624ebfcU, 0x514b220015030023U, 0x717eef208204054U,
  0x291a0229f807fc02U, 0x32221d190c0d0228U, 0xe7f6e208230b2bfbU, 0x21e41203f9f804e8U,
  0x14331719f11de40fU, 0xeff92a2e0f132e17U, 0x1deecd5fd0af51bU, 0xd2aef0e0912ef0cU,
  0x3f390e06241efd0cU, 0x1234103442382d38U, 0xe20000dbfa0912f9U, 0xe9e8ef03ce04f6deU,
  0x50a281c2306f503U, 0x1b0b091a04120f21U, 0xcdd20c14fafffc0cU, 0x10f813f6f91619edU,
  0xf81ce8150f1e1ae1U, 0x4ea0b12231e121eU, 0x322b04eef11306e2U, 0x1113fa04110df804U,
  0xe0fb0b13143b1811U, 0x1f6f9e1f0e4f109U, 0xe10ede020f8f5e4U, 0xe41cfb1a15fef6e8U,
  0x3f108232d08f31cU, 0xdcfbd2e7d6eb0e06U, 0xdbf5f7f4ccf2ddeeU, 0x7edf4eae8f81205U,
  0x38011c0cf0300e35U, 0x142309162b2b162eU, 0xff1afe0ce50cea04U, 0x2d1ce9fdd6f5e8deU,
  0x2805fdfc3008fb11U, 0xa250d1203101424U, 0xfc3a2e3b1315151eU, 0xe60720dcf0ea0407U,
  0x7fc25f1f3ef0417U, 0x105f81e26fa0befU, 0xe1d9f3ec08ec06fbU, 0xf9f0f10a03fceae2U,
  0x709151d161b0b2aU, 0x2f30b14fe140034U, 0x40092409261420edU, 0x163b30092b412914U,
  0x1007121403fffa15U, 0x60302052c0a1a23U, 0xa0b0e1cf6fc12ffU, 0xfe0cf810fdd307faU,
  0x3726321b2bf70115U, 0x3a2c22113c243a12U, 0x101bfc0b2bfe0afcU, 0x27ff362a12f5f408U,
  0x26061c3a0a340e07U, 0x1912eced0c2a0504U, 0x51204d8ece9ee0aU, 0xe116e710d5e4d407U,
  0xff262bfeeee6f604U, 0x7ed241d0b1aee24U, 0xe40d07da0a2309e9U, 0xd8d6e4f7d7cff3d6U,
  0xec1e0a241fe6ff0bU, 0xf0160f191f240125U, 0x610fa05f315f7f0U, 0x60bf219e6cadad6U,
  0xf0fff4f409f20fe9U, 0x1d0a0b0afa0f04fbU, 0xf706e201fe02f1f7U, 0x305041700f2ed02U,
  0x2efc0826292c1fefU, 0x215e504ef041b19U, 0xe2d201f3df0aedf6U, 0x150c041bfae9fae4U,
  0xe811f5f302e20f00U, 0xdbdacdc9e8c3f0e0U, 0xdc0ee0ece9d2c1f9U, 0x27110c1e192afa17U,
  0xaeef71125212314U, 0xe4dcdff60de3f72bU, 0xd1cbe1d8dce4e7faU, 0xedf814d8ede4eb07U,
  0x9060b24163aff0cU, 0xe707e90a0c14e803U, 0xf4ddede0d9d0fdf1U, 0x11e81013e4dad7f4U,
  0xf6181d0bfb1e1219U, 0xdded0005ee0dfd17U, 0xeff2fbcac3c5e8fdU, 0xb2509f3faffc9dbU,
  0xc7e3081123fcefedU, 0xc5b3d5a29caacfb4U, 0xb2bc95bac6b59b95U, 0xf2c2e1c3cbafd6c9U,
  0xdb01c3d4f7fdfde6U, 0x61805f0ee05eaf0U, 0xf8f8131108fdf508U, 0xede5ead9ea14f219U,
  0xd0f0c3ecf0e2f1cdU, 0xe9f408fae4f5baf6U, 0xefcacdd8ccfaebdeU, 0xd4dae3f5d1e3fb0fU,
  0x180b10e80cd0c801U, 0xc601e1e602d601feU, 0x7e4dde1ea09f1f0U, 0xb1908f61bf801f8U,
  0xc1e6d9fd0cebe1e9U, 0xbfdfadceadb3b9b3U, 0xf5eee2bfe402dad5U, 0x5ef0cebfbe9e308U,
  0xc7ddc7d3fcfbe4e6U, 0xf7d5ecd5e6c1f4d3U, 0xbfcbedf004eed0e4U, 0xdaeee4f400c8ecf6U,
  0x16122b0b0ce50eU, 0x13393c350b2f1a2aU, 0xe817f0fcf513181eU, 0xecf2cce6efede6f2U,
  0x930fff80d183015U, 0x10fdee112731fb05U, 0xf7f5f504fddbebeaU, 0x33f7032510f30af4U,
  0xa0f00071a04f401U, 0xffe0f909ff1dea0cU, 0xd7dde7eaf2f5e3d6U, 0x1913141314060bf8U,
  0x280d052c18150514U, 0xbf4fffbed13fd0cU, 0xf8e9ef19061c18dcU, 0xe80601f5f025191bU,
  0xe9dddafbf7d8ebf9U, 0xee030103e6e4f1efU, 0x70203120815e1efU, 0x2024fef4322a130cU,
  0x9eb00f4ff18fce7U, 0x708fce4f1e4e3efU, 0x5f81713d3ebd5d9U, 0x617f6fa0f101ee1U,
  0xf6d6aaefd9edeae1U, 0xd9d5cfb7dec1eceeU, 0xcdc5d7b7b5bee0a8U, 0xc0926fcf6f400e7U,
  0xde725f3f7131012U, 0xde1018ecf6f8f5f8U, 0x1a34250b2b2c1d1dU, 0xdcea01eff42a2e17U,
  0xb9e3f005fcecd10aU, 0xb08e31305cecdcbU, 0x2da16ea09d0c8e2U, 0x131e290deaf0bddeU,
  0x1efec090e151603U, 0x3c05241221011418U, 0x382f1d1a0002fc2dU, 0x3151e0f1d07282aU,
  0xf5bfdad8eacff8faU, 0x1e0afaf2f0cdf5f0U, 0x19fcdb02e3fef715U, 0xeada13f40a08fb1aU,
  0xcaf4e0e3c9ebebc0U, 0x13000802fcfcf9faU, 0xdf102dc19fb20f7U, 0xdcfafce1faf5fa0bU,
  0xdbfbf4ced6e7d0dcU, 0x1f1e09ed0f1404eeU, 0xf0fae4070ff80131U, 0x14fd0e06f5dbf9faU,
  0xff4312604020ad9U, 0x8e6fdea0f1a0dfdU, 0x6e9c3d8d20d11deU, 0x1904f309ef05fa11U,
  0xfd2f19222f282843U, 0xe0062612172c0af7U, 0xf4f001feeef7fed0U, 0x232eec20f0eef5faU,
  0xdcfaf8f0ec071842U, 0xd2d4dcd7e0ddd9fcU, 0xd8e3ff0f00d6c6bcU, 0xc6eaf8e9ec01ffc1U,
  0x5e8e60cd7f408dfU, 0xdeff161309feeb0cU, 0xdec7f8f6d9cf03fdU, 0x11d6def7d5deeefcU,
  0xef07d0fee9d7f8f0U, 0xeb03ee0ce0d7e90eU, 0xf41509ea0209deedU, 0xa051b2417f42c0dU,
  0xbffacce8e6e9f7edU, 0xc9edd0ccd406fac1U, 0x81ee9e6f7eae0ddU, 0x1212080df10ef507U,
  0xe7ceede1efe0fbfbU, 0xdbeee4f1f4eaddfaU, 0x91ae4fa03ede6c8U, 0xeffefa26f112fef4U,
  0x9f1e4f60bf70009U, 0x2006e7ebffe5130bU, 0x915ee270a0421fdU, 0x101d2600011d030aU,
  0xf5d8ebf6fbe6eaedU, 0x1502f8fa00dbf4e9U, 0xe1728f805e4e8e8U, 0xed242b2f190d0df1U,
  0x903eff6fc22f5f1U, 0x1ffe05fa07e1d80fU, 0x6191f0107050e31U, 0xf000151525f8f313U,
  0xdfecf30df7e3f7d9U, 0x1537314727331a1eU, 0x3b1317220b2a1819U, 0x2e211c1416310c0bU,
  0x3912313e0e2818faU, 0x31523c5126534d3cU, 0x53274c572e366338U, 0xf30b290135373427U,
  0xe6fe0308ea09eb21U, 0x281a1b09ff0b0e00U, 0x2a273a122b193103U, 0x24433b2f19140dU,
  0x611282e341a1d0dU, 0x92d141216250d06U, 0x3d1921090a2b2427U, 0x92a0af6280e1018U,
  0x1f100703e8f5e808U, 0x293131142d0d2204U, 0x2634252616300a0dU, 0x161ff5fd252d1b12U,
  0x17231a2c3f3c2136U, 0x3f331d143c48153fU, 0x3f36542352403425U, 0x251d38403a142246U,
  0x2a1c370633141e10U, 0x16282d0c12031c15U, 0x15040e27050b3a38U, 0x1d3917080d282133U,
  0xf493830460a3b31U, 0x340948171d1a1f10U, 0x233f6000e37121fU, 0x26ef0c1df8253317U,
  0x23402b0dfa0624faU, 0x812301333173124U, 0xf12339252e3d3d02U, 0x3b3b0f1315141e0bU,
  0x39481a2106233913U, 0xe0a2d252b3e554bU, 0x3e19271239241642U, 0x182112200d1d2245U,
  0xfd0604f2f9302e19U, 0x9072427ef230a26U, 0xfafe1d0bee271b04U, 0xe2f7e9ecf9e50beeU,
  0x2704fef0ee12dcf7U, 0xf5f1f50723fa0020U, 0xef04271d1df3f507U, 0x16f7f9f308fbf41cU,
  0x3334163f2c203a0bU, 0x15fd173903241c3fU, 0x11f516f5f70ef42dU, 0x1f231325edf6e5ddU,
  0x1d00251e0701242fU, 0x4f7140b12140600U, 0xf01cfe2009031805U, 0xae0f0e2e9f20712U,
  0x7f8faf619f01b20U, 0xfd09f204e7cc0ee5U, 0xd7f2f60406170becU, 0xc0daf6fdd0bac3c4U,
  0xf2dab0d4d0e6d4cfU, 0xc120eefecd4e9cfU, 0xb10f0fd17f6ea1cU, 0xff0a07131d11e9fbU,
  0x152e290f143f1022U, 0xf824f9f002180622U, 0xce3eee310052114U, 0x2c0b42411510f3fbU,
  0x21141500272aee05U, 0xd207fbf1f31d272cU, 0xea08daf7d9f2dfc8U, 0xdedaf1fae1fbeff8U,
  0xfb16f8e4f2191514U, 0xf51cf4edf00704fcU, 0x1a110fe7fd1e1013U, 0xda06fdedd6fb06f3U,
  0xe4ebdee4c8e0cffdU, 0xfbfbf5f40be7ff0aU, 0xe6ffec15f612eaU, 0xe9f90ef81717e2dcU,
  0x1404f80f12f108fbU, 0xefed11fc001121f1U, 0xc5f3f5f2dcf0eff7U, 0xafdf3dcd4c8c3beU,
  0xfaf2d2ea010be7f0U, 0xecf3e30ef4d9fbfcU, 0xd1f0fb08d4e2c1d4U, 0xe2ee02d4ede3ecd4U,
  0xf9d7d8fdfad9f9dcU, 0xf21011f8edf1eb03U, 0xdbeb05f00df2e1e5U, 0xc0b6b9cbcdc7c603U,
  0xe3e0d0efcec5e4aeU, 0xf1dae9f7f4f6d8ebU, 0xc3e3c0e9ec100211U, 0xefd7bfb2b8bae4d4U,
  0xd4c3ddca02d6e4c0U, 0xd8c5fae9fff8e2cfU, 0xcfe5d1ecebccddc2U, 0xf030a10ebe0f7dcU,
  0xeff9d6fff0f0ed03U, 0xa8cac8bac8c6e8e8U, 0xbeb7bbd7cdd4d9ceU, 0xfae6dacce2dec5deU,
  0xcce8dcd0dad9f005U, 0xe5cfe6facdbbd1c2U, 0xf0d0d0d3ddfbf3d3U, 0xe1c3e6eac0c1d5e8U,
  0xfec4c6ccf0c6c1d4U, 0xec1004080dfddf0dU, 0xfe00f9dbfee81511U, 0xe3dbeac6f2dfe1c0U,
  0xecc2f5f1ecebdaccU, 0xd4ebddf8c6dbe9cfU, 0xceb7c3b1c8d4cac8U, 0xeeead0e4e2e6dccaU,
  0xdadcf0e8dfe50de3U, 0x1a08f112e60e0bU, 0xcdf1e2eee5d80816U, 0xbdc8c4c0d6f2f1cbU,
  0xc9e7bcc7d9d0d5beU, 0xd00cffd2cfe1fef4U, 0xd8d7f8e9d80802e3U, 0xffe7cddcffc3e6c6U,
  0x1ddbe7e407e3dfdfU, 0x516070c170a1119U, 0xaf5eddc0efff519U, 0xc0bdb0107dbe7ecU,
  0x150dff0d09fbfce3U, 0xd7e6e8f8eefdfffbU, 0xf5c0c2e5c0cfe8ccU, 0xe3e50debe9d4cec7U,
  0x1418f41a0ae0ee0eU, 0xfd0bdcea05ecf909U, 0x3e103eb02e8040dU, 0xd8df08fce0f504eaU,
  0xc06140a04f2f40bU, 0xbfce8f4fd00e6edU, 0xf2f0e80204e910dfU, 0xfe1ecd507f010feU,
  0xd8e9f8f70f0de5d9U, 0xfeec10010feeddU, 0xd8d5fb01f5f6e0e5U, 0x17fbee22f4ebda09U,
  0xf71920f730171325U, 0x270a041131f41514U, 0xf2150afc0d120914U, 0xfcece61f16eeeefdU,
  0xffce1ddfb0ff3dbU, 0x10f21a33201a21f4U, 0xcf4e7feee11f5e3U, 0x15dcf0d907d8faf8U,
  0xe7dc16fed308fde7U, 0x31122e040df702ebU, 0xe910031df90c0401U, 0x42133509f5f915dcU,
  0x4034232b3b362130U, 0x2c21fd1920273926U, 0xf0f50606edfc0c2dU, 0x312003320eef0ae2U,
  0x413128141935360eU, 0x310a301b28101621U, 0x2517dd051bed10f9U, 0x1629371a1d252e0dU,
  0xfe142e110a0c341eU, 0xfefd20f8fa040b01U, 0xe3f4f7ddfefbf805U, 0xeb0ee50edff803f8U,
  0x19efeaeff7fa0f13U, 0x302bf4e0eaf00aebU, 0x26281b1227243324U, 0xb34370d3939162dU,
  0x282e1e2c22161135U, 0xf4090c180aee2621U, 0x10607eef3081e09U, 0x13fbfbf41d0a0ee5U,
  0xf8210f021302140eU, 0xfd1d1718201c1fe7U, 0xfa150c0d1b13fb0fU, 0xf3ef2c14171d14ddU,
  0x101a011d0f0a13f5U, 0x27172026260e0e31U, 0x4fb0febf20d1dU, 0x1618081602f0e3f2U,
  0xdeee7f7eef0ec1bU, 0xf0ff0d03e5f6060fU, 0xeb1aec181b05fb14U, 0xe810f309062afe0aU,
  0x919f40ddc0101eeU, 0x101d1fef1414201dU, 0xdcfe171f17f1ed13U, 0xf4e314e6f70beae3U,
  0x4e70cfaeb1202dfU, 0xe40403fb01060412U, 0x9dd181c0ceddfdcU, 0x10af5f2e81219feU,
  0xfbf504e807ee1900U, 0xd3e1e9ccf2cdecd9U, 0xcec8f2c6f5d3c9bfU, 0xdc0205e5f1f9e0e9U,
  0xffd5d3e4e3eef9d6U, 0xeb0e01e405e00de9U, 0xf119f002effbf50bU, 0x223d1321202cf7f3U,
  0xd3f121b1b422e2bU, 0x3c151a15380f1f22U, 0x16313432082b1f11U, 0xdfda0cf7dfeae5f4U,
  0xedeafcf7e6edfe08U, 0x14f10f0ef8fdfce4U, 0x22141cf9ddf2eaf3U, 0xddebf11af30915f9U,
  0x4e6090a0206f9f4U, 0xece5ccf9ecf4d108U, 0xe5e8d7f6e7e9d5eeU, 0xcfdaf2daf7ebd0ffU,
  0xf5e9f50df6fbd3e9U, 0xd5fcf3ff01f0ecebU, 0xcfe6b1bfb9e2d0f5U, 0xc902dcecbacbcdd9U,
  0x25ff19ddebdfe0ddU, 0xedff15e7ffe801f9U, 0x24191d01f6212319U, 0xd6dadaf6010ffc0aU,
  0xf8decbf0dacfd5f1U, 0xebe0e2dfccfce6edU, 0xe4fbe41111fc11ecU, 0xfdd606e1e7daf00bU,
  0x5fddb06efd5e1edU, 0xe5f307f4dbfefdf4U, 0xe9eaccdcfde30ed7U, 0xc9d7e0d8cee9fbd5U,
  0xd1d706d202fee0e4U, 0xde120408fbdbff09U, 0xebedffc1e0bff6e0U, 0xdce406f9f8e4d5f7U,
  0xfcfbf02c0f1b07dfU, 0x1a0c080a0a2b1c21U, 0x13130917fd300827U, 0x23220f062a29261fU,
  0x2105040f34343120U, 0xefb152d2b380313U, 0xdce91e0cea1508edU, 0x1bf40bedec0bf702U,
  0x2c230b21fe201a0fU, 0xfeb102819060322U, 0xfff4fe09fcfb12f6U, 0xea0dfb16f002fe02U,
  0x15f6dfd6efdaf6ffU, 0xd0df08f0e023f507U, 0x2fdeadcef0101e3U, 0x1921141af319efe1U,
  0x52280e413e2627f4U, 0x5c3b363c2a461320U, 0x555f46473f48573aU, 0x1e1d2238362e341eU,
  0x2131cf2021bec18U, 0x2731060e2108fa1fU, 0x33111126353afd0aU, 0x215261512172634U,
  0x2c01080d1221fc0cU, 0x423161c0406f715U, 0x82b022f0533300dU, 0x30231917190d0cf9U,
  0x17fb1d4c2f252c0aU, 0xf01f241b1029fb08U, 0xe4fb0711e1e4fa27U, 0x150b040aeb00f3faU,
  0x204060ef6fa0bf0U, 0x416022b1a0c060eU, 0x351542ff3315130bU, 0x10411a0e2dfc2f0cU,
  0x120e3f3410133033U, 0x423c36111315382eU, 0x231b0921131f1314U, 0x17151c2e31320f38U,
  0x271f5c4846351d4fU, 0x3e5a275141402255U, 0x111209131a2f1c3aU, 0x3204141c1726feU,
  0x41012b0cfb342b25U, 0x111af620294a35U, 0xe1f8e9000efef826U, 0xc18060413f804efU,
  0x8e6eff7eaf50de7U, 0x1b200d04101d0107U, 0x1f07072a2534043bU, 0x2a292c232b0f1901U,
  0x6110b11fc19202cU, 0xb1d25242f2a3018U, 0x493837451223100fU, 0x21ee2e0b2e343a2aU,
  0x100de60104ed0a13U, 0x26210b120af00711U, 0x341b2a3415143c25U, 0xc3b11b0b3c222f1eU,
  0x86b39fb7a681c599U, 0xd19272f31191ffbU, 0x33333b3ef6fb2819U, 0x2c16201e2b322107U,
  0x361f2312271e392aU, 0xae00ff5fff42630U, 0xdafaef12e4dcf2e6U, 0x110a0020f905ece1U,
  0x162507f3181e14e9U, 0x241e3b3306261702U, 0xd1a2f4712183812U, 0x131632160335040bU,
  0xc9eef61017fc0003U, 0xd4cebfccd3f5e1ebU, 0xdfd9d9f5d4c7c9c9U, 0xdeeb1ef026f5f71bU,
  0x72114fddd03dc05U, 0x1f0910cfff041308U, 0x2f21130903050d0aU, 0x390f51262a1a2f27U,
  0x1120344010283215U, 0x18f818f9d9e41703U, 0x161f24ea13071919U, 0xfe07210b2e2cefefU,
  0x151e29100827331bU, 0xfdf2fef11b140efeU, 0x25031a15e5f9f0feU, 0xff1d08e3ee241afeU,
  0x1e09df0314010e18U, 0xf4e4041a210b0402U, 0xf5e7f41c1eed1df2U, 0xeff1ce0fe00ec06U,
  0xdae20b03110dfde9U, 0xeb1e2002dddd0adcU, 0x28331615fdf5f60aU, 0x4392c0401fe0709U,
  0x1d2f0d001025072fU, 0xff12092b2a232b0aU, 0xfa110c021f1a1efeU, 0x3e140b1c07f0ff0cU,
  0xb30331224103e44U, 0xe30302ed26012b0cU, 0xfa2209e9f315f7efU, 0x70be6e1ed18ebe8U,
  0x1fc0209251c1a06U, 0x21ee18fc0ce1e3fcU, 0x9f6f3ef20ee0cf8U, 0xf9f8e90df1ea1f12U,
  0xe8cfdfeaf9cdd5d4U, 0xf8d704dbdcf8f4d0U, 0xe0d0daf00ce3e8faU, 0x24e1181b0b0602e0U,
  0x9ec0dfafb0c261bU, 0xd0cfd9eaede9edfeU, 0x3f6150d0410d5d2U, 0x2e06f107e70c0213U,
  0x3da0aed1cf3ec0fU, 0xddb7e9d5eecac1cfU, 0xf3c4f1e1cfe5a8ccU, 0xd6db1917ea1de90aU,
  0xbcd2d0eaecd1db06U, 0xfef0c8d8c4cde8c5U, 0xfa07f7f5e3d4d5e0U, 0xd8e6fee7fff3cdebU,
  0xb2a2b8b6dedee802U, 0xdfb2a3b1d3c4968bU, 0xd4d8bcbac8b1bdceU, 0x9d5f0defbf2bcebU,
  0xf8d3edecf6dafae3U, 0xcfc4e4f3c808d2d4U, 0x51b10001ef2d4e9U, 0x4071efdf4202609U,
  0xc5e7bbe1c60d07f3U, 0xd2cbc6ecf0f6dec9U, 0xe4d301ec01f9dbfaU, 0xd5ddded4d3d9d8edU,
  0xfad5d9cbd0eecee8U, 0x4ea06e3d2dbfbdbU, 0xd5b7dfd5d9ebcdd4U, 0xd8c1d4aecdbecfe8U,
  0xc8f1dce3fad0c3b8U, 0xef00f6dfed06fb03U, 0xafcdc5b5dee4dbecU, 0xb0bbb5a3b39fb0acU,
  0xa6cbc8a99ba1b7a9U, 0xbae7dcf6d4c4b1d1U, 0xb6d1c1c2c8dbbebdU, 0xb5a1a9c5d1add6abU,
  0xa2afb6c0b99cb39bU, 0xf9d7eeb6b4c3d2d5U, 0xe3bfd4b6c9c4e3e5U, 0xeec9e7c7b5d5e1dcU,
  0xc9e9c5dae4d1e0d5U, 0x7e60fdeeaf2fee5U, 0xcfdae1baded8cc09U, 0xe5f0cddcede3b7deU,
  0xe60ae6f1f9fdf6e2U, 0xffdbe7e9f9f9ed1bU, 0xe0c8f5cce6fee0e6U, 0xe1dbf7e5dcfbf0eaU,
  0x4f8d5d3abd8bec7U, 0xcbb3c6c9c6ebe2cdU, 0xe008d2f0fcc9eccdU, 0x12dc02e4f5fff2cfU,
  0xfcf701ec01dfd5eaU, 0xdee3dc12fbf00bf5U, 0xf60401d705050606U, 0x1902cfd5f8e8fcf1U,
  0x24192724280e20feU, 0xddf6e41bee2214efU, 0xd8e0d9d5c8bbbfddU, 0xc0d4f4cfd2cfe2d8U,
  0xd909dfe0dce0f9e1U, 0xf7e10d0004050909U, 0xcf3fcfff6ede60aU, 0xf5e800eed0f5160aU,
  0xcabcf1f4ea04dcf0U, 0xf3facee8ebcad0f2U, 0x1b19f0f2d5e8edf3U, 0xf11b1a17fe162931U,
  0x15fbefef04e40ce8U, 0x112400fa10f60ce9U, 0x2717e5e31c15f3f5U, 0x3bfe24f511f20129U,
  0x4b392b2d45433819U, 0x2a270e29183c3d0eU, 0x21e507ed1c1efd34U, 0x252f2af01de6ecedU,
  0x411f211b39431f1fU, 0x3d154c191c211634U, 0x3514060a2a1dfe3bU, 0x513a31090f300b1eU,
  0xf02323240f3e121bU, 0x373132211f15320dU, 0x48463f2e4a4a162dU, 0xe362f2c3b1c4028U,
  0x190103f4260d061eU, 0x200e040601f9321eU, 0x311c4133441c30fbU, 0x1e333e1641272020U,
  0x1922133e2d070a25U, 0xe02071e08fa1548U, 0x61d02281e171d22U, 0x404a32254a172441U,
  0x48304e5734501e24U, 0x2d1f072433411638U, 0x3e24170a29401018U, 0x1d1536412c4b1a41U,
  0x110f0e302a3c2a07U, 0x171e473935191314U, 0x270b28472a162b4cU, 0x20f270b3d1f2032U,
  0x5135260b382f2f1bU, 0x233a162440535221U, 0x21820143727fe24U, 0x2019241610f0f1ebU,
  0x1d2f4c48354b4e48U, 0x161243181e452b3bU, 0x3127fa10373f041eU, 0x2e3b57101b3e211eU,
  0x2d46091a385d5361U, 0x20212004332e3126U, 0x38122a4d2b213521U, 0x33351b3f3c582742U,
  0x2436441a29552e42U, 0x43395c4e262a4742U, 0x1006141922383b4dU, 0x1f2206191400081aU,
  0x45230c050e16ec11U, 0xe28270e2b4e3c1dU, 0xd211d13270523U, 0x81de512fedaf306U,
  0x231b1f303c022d23U, 0x280319321a23333cU, 0x18fd180e00f0dfeeU, 0x46361f3a0f111b2aU,
  0x254f2c373f382a38U, 0x331a483342291852U, 0x32183e4d47401f2cU, 0xe1539270318401eU,
  0x461a3941120e0631U, 0x16f9052521391f43U, 0xec17061213031cefU, 0xf619f918e70a0e07U,
  0x24fd270bf9261a23U, 0xa361e0d0519312aU, 0x1b01ee270019fa34U, 0x4d4d4fbf7eae3f3U,
  0x1103151716d809d0U, 0xfff615e6e6190e16U, 0xfa1e08ee05def5daU, 0x1c133e3035361326U,
  0xc807f113071a1cf0U, 0xe4c8cff8cccbece9U, 0x52e17340e2f091fU, 0x120307fe2d021937U,
  0xec04fcf402e51517U, 0xfbf40e21f50ae304U, 0x3d6f4f9151bef26U, 0x1919faf5eaff0c0bU,
  0xf618f5ed0fe80002U, 0x1f1d9dbceebd701U, 0xe27012418020316U, 0xf9f7f802e40cf6f2U,
  0x2617062034ff2528U, 0xeb132111211d2b13U, 0x17edecf4f219fe03U, 0x1520051115f4ff02U,
  0xeae5e717eee61f2aU, 0xe7eddffee5c7d3e1U, 0xe8f6070d0de2e317U, 0xf1e8d703f51f1dffU,
  0xade3e5d8c7c4f4cdU, 0xe2cbf0e6f5f9cab4U, 0xd3c5d1d6ecd5f5d2U, 0xb9c7ade2bcc5b0cbU,
  0xeaeb1209d9e4bbbeU, 0x14f00415fa21eaf2U, 0xef0ce4f4fcdeeddbU, 0xea11ec07f3d3d8e3U,
  0xd1d2f0cbd0f1f7cbU, 0xacbfb5b3d0c7b3b0U, 0xd5d6d2b2cdbdc0d5U, 0x120f08ddebf3d5c1U,
  0xbfa2e1e4e1defb16U, 0xd1b1e1e2e29bc6c1U, 0x4e5f702e0e1c1adU, 0xedf3e2e4fa0e1118U,
  0x9895afccb1c2ecdbU, 0xedc2ba9bc88a8497U, 0xc3c8cceaf6e703feU, 0xe1eeb7aee4ccd2d3U,
  0xf0f2e1f4e2ebdffeU, 0x28032e102027302aU, 0xecf2d8f2230e2624U, 0xeb04fb1216101c09U,
  0xf0f206fded0dde09U, 0xe0e5d6f5d3daebfcU, 0x8e3daf5f6d1e1deU, 0xdbe6d700f2f4c600U,
  0x1a2d020d06d5d1ccU, 0xda04210b2305260aU, 0xcacfe5c1c9c1c0edU, 0xf9d0e1dfdfe00001U,
  0xce3ef03feff0ef7U, 0xfd1024f32712fdfaU, 0xf9f40c1c1209effdU, 0x132721130710f6f0U,
  0xf4230b1ef11b1230U, 0xe7ef0cf223f805f7U, 0xf3d7090e10181cffU, 0x1a0818f3e70e10feU,
  0x1426320027141d25U, 0xe71e28182b1f4b52U, 0xdc01fbf3120df7e6U, 0xd9e1f9fcd2e2f0e7U,
  0x1201fdd0d9cdd3c2U, 0x18010713eb071c03U, 0xe600020e290101U, 0xe1eef2e6fa03ef0fU,
  0x2a29321a0302fc22U, 0x2d14231109e800f2U, 0x6f3eb07f9140111U, 0xead5efefc5d5e9cbU,
  0xf800d4ebecccccfdU, 0xf30c15e20ce7fb00U, 0xd2dad3d8ccc5d3d8U, 0x50af41d05060af4U,
  0x1016291b30150512U, 0xf7fde9ceeaddf7f1U, 0x15e2e6e1d50500e0U, 0x2422204e203c25f7U,
  0xfd1d1510120d1e35U, 0xdef708fdddd70f09U, 0x421f46410c2103f5U, 0x2b3e0b151c3b1eU,
  0xfce4c7ed14f91017U, 0xe506d8d4c2cde1eaU, 0xfaeeefe704efe104U, 0xeaf90308f7d1fe10U,
  0xe6dbf8d4e6d4f10aU, 0x213a5d502d0505f6U, 0xd130630160f1e4aU, 0xb3b4d1ded3f30e03U,
  0x2a2b1d312b19fcd5U, 0xf0f92d0c42391f33U, 0x161cf10923181c19U, 0x2420100cf8edf911U,
  0xfb23142717342626U, 0xdff2e908fedcd4eeU, 0xe3e2ffe5f3e7f8e0U, 0x27fffafd19eef606U,
  0x140804110f0ffb0bU, 0xd500e9d0dada0517U, 0xeff7f7f7e7bffce3U, 0xb0c8c7c5cbc3c2efU,
  0xe8e5f0f90aecbfe7U, 0x1af7fff1d8fff703U, 0xdefe00e5fce50f0aU, 0xbcd7fac708dbe801U,
  0x22ff09f5f9dcc0deU, 0x2e61c121222332aU, 0xc1222ef0d0e1207U, 0xfc05e40b0805d6feU,
  0xdde920fcf21b0eU, 0xe5f2decec2f2d9c3U, 0xf7f1eeef09cbd4c8U, 0xe5eeea061ae5200eU,
  0xb7b6e4b2debed2d7U, 0xebc1bcd4e3e1bee9U, 0xe1ccdfb0b7caa9c5U, 0x2f0a2f06210ae0e8U,
  0x1dfa16ff380511U, 0xe7bcdfea04d5caf0U, 0x3f1d6d9dddfeedfU, 0x1f29172026160bedU,
  0xf1cffdd7d6fd15f9U, 0xdbe3f9f9e1dbc6b9U, 0x291d1eefe8fcede8U, 0x2f9f222f2f207f9U,
  0x5dbe5e4e2ebd5fbU, 0xcecec9dcc7eced04U, 0xb5dee7e0e3e6e3dbU, 0xb4ccf2d7e3cfbbd2U,
  0x8cb9bca188a3a0d1U, 0xf8ff0bf1f3eda18fU, 0x25462c201a3c0cf3U, 0xc4e7e6c9011cfc2cU,
  0x17d9decfd7b2dfe5U, 0x371df8281d0f03ecU, 0xd8fc06f011022e05U, 0xc8c4c7ecc2bee6f8U,
  0xecfff2d803f704caU, 0x132e0923f817eb07U, 0xcaf4e2dec6fbf9f9U, 0xfed705d4ccc4f6c8U,
  0xf117f0f60df3dae2U, 0xcbdeddfad3d507f3U, 0xd7d6d0d4dde4d7e7U, 0x34051c250a01dbeeU,
  0xf3f201021e15f704U, 0xf9f8f21800ef0a08U, 0x4f4e29420703fefdU, 0xe5150c1109202c16U,
  0xf6f4f5f90e23f3f3U, 0x1dfd292707170416U, 0xf8f8042a393d110dU, 0xe7eafe0306ffebf9U,
  0xff051dfb1217ecebU, 0xf9cfd40ffd1ef21dU, 0xe30000faf1f3effeU, 0x110a0c2622f6f50fU,
  0x2826261432fc2f10U, 0x282d34060b080218U, 0x20131f1d090a3e07U, 0x2f31005e91be90aU,
  0x33fd0905f80209ebU, 0x1d1c36324e4c554bU, 0x321637211810412fU, 0x140f3a2a02021c35U,
  0x302bf8e7d704e6fcU, 0x1b121404281f2727U, 0xee2625081d102f0dU, 0xf012251b250615f0U,
  0xe9f9e8eef208fff1U, 0xeeeed0de7dfd1eeU, 0x2e03f10202030f05U, 0x575d572a304012faU,
  0x29314a3e4e1e4841U, 0x8fa2f0000180f3dU, 0xaeff2fedd110516U, 0x41ef6f5302e320eU,
  0x41365a32212119f8U, 0x392d43502e483a32U, 0xded20809fa1e1b33U, 0x242c2ff5f30f04f9U,
  0x42413d5250413024U, 0xef04fef30305101fU, 0xdfd9d4dbdd190314U, 0x1e7fa1818fb1a11U,
  0xf9d4da0d09f9f808U, 0xa0e1de707ebfdeeU, 0xe71cf505faf60922U, 0xece0ea15010714efU,
  0x25e212f30af9cdd2U, 0xdde30703f8092d06U, 0x9dbeefafffa0eeaU, 0xebd1e6e5d8f3cafbU,
  0x1bf32400f0e5eafbU, 0x30f935161f14f10aU, 0x2e7fddf0b1f242aU, 0x832faf21d190ed4U,
  0x131e2e1c35242f32U, 0xe20315ecf1251c3eU, 0xf9e9f0f3f3f10003U, 0x50e1818fcf5ecc9U,
  0xeaf927f0220beef7U, 0xe19fdf6e612e2eaU, 0xfcfae8f500fd28fdU, 0xf0106f704171bebU,
  0x3d18391d2b30181bU, 0x2e32341e443d2e47U, 0x310b234d1f333c3eU, 0x211b121c01202a26U,
  0x1ff4eef916243020U, 0x141415f318271b1cU, 0xfee013fc0e251911U, 0xe2dc140cf911d6e2U,
  0x1c0cf7fd14f61401U, 0xd8db0df3f8081b20U, 0xe6f0c2d8e9e100eaU, 0x3f2d191f1802dde5U,
  0x15223d1b481f2010U, 0xf5daf2cdd9e50a2eU, 0x16eddef604d60df0U, 0x262a3a0b24180f14U,
  0x3a1d222315340d23U, 0x32f04f3f6181a04U, 0x212df925e4f00cfaU, 0x1f1e113227fdf50bU,
  0xea0603f423260314U, 0x112800fcd504e8faU, 0x2d021e1c2ef01af9U, 0xbfc9030deb0bf027U,
  0xc2ebdfafc9bfc7dfU, 0xf1fbcadcd501dbf4U, 0xe8d7e4d6f0cbccd6U, 0xebe9eb01cdd4e6cdU,
  0xc344528ff1a312dU, 0xb7b9e1ff1d151f20U, 0xbcc6ccceebb8d9c9U, 0xf7dad9e0e0ded7d2U,
  0xf3f2e7d1f0f2fae9U, 0xd4f1e2cfb9d0d1f0U, 0xf9ee15f907fefeecU, 0x320c1c390a052c02U,
  0xce01f20afc16150dU, 0xe8fcdec9c2cadffcU, 0x221f18f5d504e8f5U, 0x7ff09333916423eU,
  0xd2c0b8d5acdfc0faU, 0xfac7cab7c5adabd1U, 0xf02b011d300302e9U, 0xe7f6e5fc10dffdeeU,
  0xeecae2d4d6d7e5f5U, 0xe91619ef12edf0f8U, 0xdadce8f2ea0fdd18U, 0xc4e3faece8cfd1edU,
  0xeceeeecac5e9d2d6U, 0xddc9e7cdebe5e9d5U, 0xc3dfd7b0b8ddbcd8U, 0x5efe4f8fbf6d0d3U,
  0x31708210513fa28U, 0xfb19e5f3d9eceff0U, 0x2821f0fe0ae2faf9U, 0xffdf09d405f812fbU,
  0xee13e8d2f01aec08U, 0xeefcecf8e0ecfeeaU, 0x3d2b10242af9ee17U, 0x51df414fff930feU,
  0x101b160a181f2e08U, 0x252421fcf0090e12U, 0xe9fc251b31fbff0eU, 0x7f91e111f0a04e9U,
  0x19dae0e400d9f20bU, 0xed0bd816eaec0411U, 0xe0d030d0201f5f7U, 0x7f91d1ffb0c2b11U,
  0xe9da0c2925f31820U, 0xfe08e7011cf9e5d9U, 0xc7deb8d8e3ddf8f8U, 0xd2d1c4bbc2bdf1b4U,
  0xa2a7b7babe91a0a4U, 0xf9ed010ac1b7aea4U, 0x1e1c1c3a322104ecU, 0x230c010403121505U,
  0x11f3d7d5e8dff832U, 0x201d18f00ff002eaU, 0xfffee201ddf318ecU, 0x29fa1d25f9f11af7U,
  0x1c19140e2b132918U, 0xdcdbc6cbe9f10ae1U, 0x1b2b18f5f215de08U, 0x3f624c3e1d33333eU,
  0xcfafc071c304345U, 0x422e0dfd10013002U, 0xf480f4c334b2037U, 0xe030022201d0f24U,
  0xebfb19f5efed1aeeU, 0xe7c4e2e2fcf7e2edU, 0x382e1d0efdfe08dcU, 0x15011f043f292d21U,
  0xf0050df2111f071eU, 0x51431f371e12e211U, 0xb3e2356402c4c39U, 0x1ff0a131b41312aU,
  0xaf11813e9140701U, 0x4112a25f6fde2e2U, 0x360f14370e2510f4U, 0x37022a2020241af2U,
  0x2bfb1614f10bfe18U, 0x1817022b33181221U, 0x924031c08f70afeU, 0xfd09d104dced0820U,
  0xcdc3ceb4dfcefd05U, 0x8efe106d5ec01ceU, 0x150c1503f5fbed0fU, 0x7eb0f2f2f300817U,
  0xfa09f5d40b16e312U, 0x20c1303e0ffd7f0U, 0xf6f6dffef3fa1e36U, 0x6f1da151f1610d7U,
  0x28401a042af3fa0eU, 0xf6f109f51f16370dU, 0xdbe2d6ded8ece7d1U, 0x231fe8fdeee5c7ccU,
  0x291d313633303210U, 0xe4f9f224ed0009feU, 0xf5fa13f514e4020dU, 0x150bf01120250518U,
  0xe7feeef900d90725U, 0xcfc2f4cc04020beaU, 0x30281d26f1e4dce0U, 0xd5eafb011d333239U,
  0xf1f000f8e2f6010aU, 0xf9fef201d1dd07deU, 0x3b45181a1a0cf2e6U, 0x102d161314142d0cU,
  0xed03ed07df07181cU, 0x3512292c060ef006U, 0xfa1e18072f333228U, 0xd3e5f2e2e5c2c3f6U,
  0x22272efc080edfdaU, 0x70e09190b0d1e43U, 0xfbfee101db04e000U, 0x3f2ec03f1ffe1feU,
  0x5121eeb1f121612U, 0x1f29303506301a0fU, 0x1f010c1011341e19U, 0x71133493d311b29U,
  0xde13e00612010a11U, 0xf906cce8fed2d6f9U, 0xf102f4f810fef9fdU, 0xc8d0fcf1fa090c08U,
  0x7fe04e805fff6fcU, 0xed21f7dae30d0d35U, 0x1f8f7e91cf92720U, 0xe10cdaeae2f6efe4U,
  0x11250dfff5eb1b05U, 0x1219310c3609fc00U, 0xf703f6f602d40a08U, 0x291f3f252a2d1709U,
  0xf9f3f110392d0f34U, 0xeac3d0d2c6f6d206U, 0xf6e9f1aeeceddcd2U, 0x223020df7e9edccU,
  0x4fb23f70526250cU, 0xce7ede7d3d6e007U, 0x2a0e06050bfd0015U, 0x312213162d2f341bU,
  0xeefaf2fbebf20218U, 0xe1060acdeeebc5c7U, 0x20181a280210e3e6U, 0x9e0f6f6fa164028U,
  0xb3d5c9cacfcce20bU, 0xfe14270ce0deb9b9U, 0x2b181c4f51553319U, 0xe8faeaf007140c30U,
  0xf5e8041e1ef00bf1U, 0xf00805fbeff503f7U, 0xee091dfd06fc1511U, 0xf91b02f0fbed10f2U,
  0xf2e9ffebc7c8eac9U, 0x4092f0b151bf228U, 0x1d1cece7deea19U, 0xc5ebeae5f7ee00feU,
  0xeb05e6f905e7e3f7U, 0x2007e00509e6f506U, 0x1fd9d7e90ef81118U, 0x36301c0e0613fd0bU,
  0x209e2e70e231609U, 0x18e9fd173d061fe6U, 0x1c0efdf824010e00U, 0x8f8212e231a063aU,
  0xa110c20faf8f7ecU, 0x13f61912240221U, 0xe7b3c9dbeacedce0U, 0x3f7fddde3e1dbdaU,
  0xf51a020816e80ae1U, 0x2afe0ceae2e1e2f0U, 0x193720112beb1ffdU, 0xd3e8dcedecf71c2aU,
  0xea03eafebdc4efbdU, 0x130bfb0123fd160eU, 0xf1fce9e50a2b010bU, 0xfa0efe03e6d600f7U,
  0x141e1324490d3435U, 0x9ee1d09271d211fU, 0xe114e200f4ee0e01U, 0x202e31242614fbU,
  0x1b2a0f253817183fU, 0xa14f017f9f1ef0bU, 0xd31fc22f0120514U, 0x1d0b30152a423123U,
  0xd0e3f80e12f90ef9U, 0xf9e6e80205dfc4f2U, 0xdf2cf0ada01ef01U, 0xd8db101d2c1d1d05U,
  0x1cdaedec1f1e1d1U, 0x1f3722f904fef60bU, 0x3c2e4a423f4d3342U, 0x120e0ef91d370f3cU,
  0x17340019fffd05eaU, 0x25434d43453f5a3dU, 0xd5dfc3cde5204313U, 0xc19fc5bbb1cdc0aaU,
  0xadcfad8d8c1e5d9U, 0xff341a1a081ce9f5U, 0x16190fff191305f4U, 0xfbea0f0901ed0bfaU,
  0xe3e5e1eb0501110dU, 0xe8ff18011223f9d6U, 0xe5d9d1f6e7ebf3f6U, 0xd8c4c4d5d7d5c4bfU,
  0x1f071f17ef02c5c9U, 0x131c3111222f2bU, 0xf9f7d914e115e805U, 0xed210ffdf1e0f8eaU,
  0xcf70e14f41af017U, 0x1d0ae8dffbffd910U, 0x16ed1f27fcf6291fU, 0xeb08eef72212080aU,
  0xc06f4c7e5e2f0ddU, 0xf0fa1f13fa14fafaU, 0x3ede3d8e9dee7e1U, 0xfc04e5e5eafcf6f6U,
  0xc05ed09f60210daU, 0xbdf1c6cfde0edaf1U, 0xaced6e7ccbde8c9U, 0x100ffbebe5fbecU,
  0xcff2def8ebeaf210U, 0x17152503202e0909U, 0x2120202f223b113dU, 0xc0f2e7eddcf60a28U,
  0xd9d7f2cde0e2dbd1U, 0x120be8d9ddef0ff1U, 0xbbceb8ccd7e40001U, 0xcf9d1e0d2c0d8baU,
  0x301510f901000b23U, 0xf1d402e702110202U, 0xccc6dbe6deb1eec7U, 0xe2fef9becdbae5c6U,
  0xcbfd02ffedf1e3f0U, 0xd4bce2d6dab4d7dfU, 0xf5ebdefcdee4f9e4U, 0xdbe4e8deec0310daU,
  0xedd0c3acbeb0c2f9U, 0xebfacedbededc0edU, 0x1e09242f122921f0U, 0x14131d21443a1a3cU,
  0xe9d9e0e1050d03f3U, 0x11d08ffe5d903fdU, 0x125160d1205fd21U, 0xe4e1fa07eaf027ebU,
  0xf70800fcfdd8f7c0U, 0x6e0e9f612141319U, 0xbdd9cdccdfe1da06U, 0xe6bfc2bec4e0d1c6U,
  0x1e0135ff13daf1e2U, 0xd7f11afb250b1f34U, 0xfc1ad8d8face0112U, 0xfee9eae7e3e9e1fdU,
  0xc0f1206e413ff08U, 0xf1e8f9fcea16f107U, 0xc1b9e0f3e2bedddeU, 0xeb090709badacacbU,
  0xf31106120b30122cU, 0xe6ccd0d3d0c6e00bU, 0xf0230eeddf00dccbU, 0xd9fde2e50e1001efU,
  0xdca6bcc2adb7c9dfU, 0xfdf01cf0e7ffd2bbU, 0x10082d2e271423fdU, 0xf3ec0720e22a0c38U,
  0xf6e406ef0acdd2d9U, 0xe208e4e21be7dd04U, 0xc2e2e1d8e2fcfaf5U, 0x10310cbf3e2d8d6U,
  0xccbacbddd7cdbff6U, 0xf3c4d1ca9fd1d1d1U, 0xfffefce5cfe5bbc8U, 0x313203f3fd1be500U,
  0x150c0c0134061807U, 0xbae3bbdeedc30619U, 0xd2e0f5c0b2bedff0U, 0xe0f2d21f6201310U,
  0xcfc6cdd60de5f612U, 0xd8f6ccf9d6b5c1acU, 0x43402a2b330f03e8U, 0xe8d702e302061825U,
  0xe8fdead2cfc8eee1U, 0xd8dd05ec140d17f7U, 0xdadffff8fbf8fdf2U, 0xe606ceffdaf7eff5U,
  0x18f7eae4fc02fadaU, 0xcdbed2d8c4e9f6d5U, 0xd4d1c1bacae1afc5U, 0xf6dbbaa7a3b1d6a9U,
  0x201d45111422f706U, 0xa6b8cde0f9e2fe18U, 0xe3b1a8e2d1daddd9U, 0xe7efff06e2f4bee6U,
  0xad6f6fdf41c0bf4U, 0x6ccd8daedd2bfc6U, 0x2123f308f8e3da01U, 0x32b341603ff121bU,
  0x21462c0c1f221813U, 0xa1d370d3344343aU, 0xeb04231f04240d38U, 0x1a2224101d181af4U,
  0x2f3820292f4e3a21U, 0x23eee406e7112527U, 0xfadef6f719efeef6U, 0x20021d06fdf8f105U,
  0xd0d1609121d1227U, 0x11ce6eae503f4ffU, 0x210203fe001300e0U, 0x1119211e361c4226U,
  0x2f0317fe0b0d200cU, 0x1b0f2d1f341e05f8U, 0xf60a0af5fcf81540U, 0xa69dcea7bbeae3d3U,
  0x8edd4e8e2baabbdU, 0x15041a063afe2f24U, 0xceae014e3f91a14U, 0x19180915f3e4fd19U,
  0xdf80c121328402aU, 0xe5f3f60816181526U, 0x1026f0ea00ebff0fU, 0x3f363f425139220dU,
  0xcceeec14013c3026U, 0x10150101eeeecfebU, 0x5f5643414854020bU, 0x91f033c2e4a4567U,
  0xef7f9cdd3b9eef4U, 0x40a20f90a2c3328U, 0xfb03110834120a1dU, 0x1b322c183022f8eeU,
  0xe3260723181f1c1eU, 0xdfd0cf50908f80cU, 0x2c1906182cf72116U, 0x16031d110316181eU,
  0x1d3dce9fc09e30aU, 0xc0c5bff0c9baf4e9U, 0x5100eee0a0ef5c4U, 0xf105ece2e003f8f7U,
  0x35232e23211d0607U, 0x3c3d163a2526411fU, 0xcfee419f9ef070fU, 0x2946312314330002U,
  0x24103e4d1d471217U, 0x6def1fd2020051fU, 0xf8f00ef0ddc9e0ddU, 0x2615212e240eedf4U,
  0xfff1a051ef9edf5U, 0x3512051c220014fcU, 0x2c1b32101b2e1035U, 0xd9020f0dedf5fe0cU,
  0xd6efeaf5dcebfbd1U, 0xf436fb2409ef031aU, 0x12f708f1f207e21aU, 0xd3d5f309ff17ec04U,
  0x803ef19ebf803e0U, 0xe8caf606e2eaf1fdU, 0xedf4ebd0eae40df3U, 0x6eceff4dac9d0f9U,
  0x121e2d152afef0ecU, 0x1342151d1d4d3ef2U, 0xfed10e7fe15ff08U, 0x1e0f10f4f509020eU,
  0x91102051c122909U, 0x1e11007e600f6fbU, 0x18e7e400e6e2caf6U, 0x331d1a2e0d01e9fcU,
  0xfe060ce715122a11U, 0xd8fd15171118e70fU, 0x52b2d17331a030fU, 0x1c0711081e231c2cU,
  0x2200f1f812161522U, 0x130dfa06ef11f71dU, 0x11dff311f61efa2aU, 0xdddaf20ed20ae8e1U,
  0x70a13e30de5e8eaU, 0x191a22251f16e413U, 0xee72003071c1cf7U, 0x410e4ecd4e3de0aU,
  0xefec0a15f4eaf0ddU, 0x30ff110635051ff3U, 0xf2f4ecdde91a0413U, 0xdfe0a0af5ef0af2U,
  0x151b1f080bf7f00fU, 0x5260a2f3b2e0629U, 0x2aff220107f6291aU, 0x4b1d2e190b1a330cU,
  0x2106f103243c193bU, 0xf114ee0f2b2c1e2fU, 0x3ecf504fdfb2ff9U, 0xcf908f803280ef7U,
  0xdbea0410f60c2731U, 0xf611dad608d4e5d5U, 0x2c25e5d2ca0103f5U, 0x2afc21162c19f918U,
  0xa190930f1e91c13U, 0x242a0c112c322306U, 0x26f42914032f2e22U, 0x2116e2e10df2eafbU,
  0x190c2f0d3626f413U, 0x10230f2110232411U, 0xff15f8e5ec251121U, 0x152f20291de70308U,
  0x1a1e00f6fb03f6fbU, 0x190707e7ea00fc1cU, 0x25290910fe05eafcU, 0x3542231140183126U,
  0x192c1e182c183d1dU, 0x391e2217200f251dU, 0x51666b3e6c2d342eU, 0x593a5d583e414a75U,
  0x1efff82c0d144132U, 0x2915f5eee513ec01U, 0x1e36164e460cf9fcU, 0xe151508170d2352U,
  0xf3ef0f0f0307101fU, 0xa06ebebeb231ff6U, 0x10fe020d0c1c01fdU, 0xd4ccd4e4f8fb21f4U,
  0xf1e9e8dfeac9e5b5U, 0x182901192124172eU, 0x2f0130ef107f202U, 0xf10ef4efeaf8190cU,
  0x25100328fd2802f9U, 0x2ea0927f2021303U, 0xfa0f1d1a20ec00e0U, 0x15480815fd191ce7U,
  0x1907f92d0d06052bU, 0xd4e8f203cbf00bf9U, 0xf215ffffd3e7de0dU, 0xeef710fe151a07ffU,
  0xfbe41e11eded2418U, 0xef06c6e2dfddddf3U, 0xddd9feedcf01eacdU, 0xf6e8dfe0f0e6f5fcU,
  0xe9d2ed05dfd4efe8U, 0x15e8dff708d7e6ceU, 0xf1111df60de7fa06U, 0xe8160306def3dcfaU,
  0xeaecbce1e9dbf9ffU, 0xdd08d005e805d5f0U, 0x2031befe418f7e9U, 0x102f4cfffcbdefcU,
  0x11091920defad5f6U, 0x511e91d18f80307U, 0xd60ee0f907e2e4ddU, 0x908e6e4fef9c2ecU,
  0xafefd251beb0904U, 0xede000ff0805eeddU, 0xff0314f4e5d3dffbU, 0xd9d5f8efc9f2faf3U,
  0xfce5d7e3d3e8e905U, 0xcfbf8effc06d7f2U, 0xfd04f1f8fff615e6U, 0xbbefcfe1b7e6ccd6U,
  0xecc2c3f6c3bfd6c9U, 0xe9cc09ee08f3daf9U, 0xfacae4f4c5d0caceU, 0xfee7e8fbd3e7d8d8U,
  0x607f2ffebf006faU, 0xf5040108031eeb06U, 0x1eedef300e913f1U, 0x15f6ecd9ece3ecd9U,
  0xdbe9f6eefc0aff0dU, 0xcae5d7ebf6d5ebd3U, 0xded2eef0fdfbdbd3U, 0xd5edfbf7e2d5ceb2U,
  0xf5e4fbf009d6e8d7U, 0xccb8c8bee5ecebe5U, 0xd2eaeef2f6e5e6e6U, 0xfaf400f5e802e9eaU,
  0xceeee1ef0fd3d411U, 0xd9ebc4f905fbdbcdU, 0xd5e9cfeadfe5faf4U, 0xd8dbfbdd0bedf6dfU,
  0xcdd5d5cbf501f4dbU, 0xb8b8d6e5b3c0c1aeU, 0xc0badcc5c0bbafc1U, 0xf9ff0300d0dedce1U,
  0xe0d400ead504db11U, 0xd1fdfdd5dd0ce102U, 0xf8dcfbe4ecd3f1ecU, 0xd8e6f7faf9070102U,
  0x939bbf86b2c8adb1U, 0xd7b1b1a7b6969db3U, 0xfeffd70f180df8ecU, 0xe300f0df0ddafcdbU,
  0xf9d2fef4e01ef002U, 0xdf10ddf8f5c9dcc0U, 0xf5fcd6d0dff5d903U, 0xe7ca00f1f6bcd0e4U,
  0xeaecfcf9d1d3cfdbU, 0xe9e3e307e1d9d3f5U, 0xd201f2ded8f8d4ceU, 0xddeecbc3c9d7bfd8U,
  0xeb0006e8e5f4d5dbU, 0xfaeefdd1dae3dcf4U, 0xdce1d5f2dce3f3c9U, 0xe6eb0cead8c6f3e2U,
  0x8f3e2faf6ff20feU, 0x4dce60ee9ddeee3U, 0xc806fd00f102f2e8U, 0xdbf400e3ccb9dbe7U,
  0xd1d6e3bdc2d0d204U, 0xe5e8eee7cfc9e5edU, 0xeabee8cac9bbcdedU, 0xddc0fcfd02e0ead8U,
  0xbdcbe0e9bef8b9e6U, 0xf2d5d6eff3fcc6ddU, 0xf0ebeb0cf8eccccaU, 0xe100ffd7f1d8e9feU,
  0xbad2c7d4f7c5fbe6U, 0xfc1ff4f8e6e9f7bdU, 0xfae9cdf0ef011cebU, 0xc8f0eae7dcfcd903U,
  0xdfccd3ebe2d7e4f9U, 0xf4111bfdd8e9def3U, 0xd0fe1f20c070b15U, 0x150e171208dcf5ebU,
  0x1c15040b10ecebe9U, 0x12071911eb0607f3U, 0xe811fbdde617f8fcU, 0xd91ae5e8ddfe030fU,
  0x2d0014e7f0e21ef2U, 0x217f6de1efa2709U, 0x1fcccd7f9f0e6f4U, 0x2725f5fb1f281416U,
  0xdfe8e8fc0ff80c0fU, 0xfd26161b031c12d9U, 0x24f40c1ef72317eaU, 0xe4f4020b16051822U,
  0xf2eef110f4f9e9f2U, 0x1b1b1033300a17fbU, 0xe0f3a2736124117U, 0xff060f03062c120aU,
  0x23060d1900f717f4U, 0x2a042a1e220a15f8U, 0xe81e0f101e282af8U, 0x3018001cec07e914U,
  0x1f1fff002d33382aU, 0x161f27072b04000fU, 0x12fded09e612f508U, 0x494747342e371d38U,
  0x2a29200809124419U, 0x3121917f7140c25U, 0x331b224127320b10U, 0x311f48492f4b352cU,
  0x1b221b423e3b1f18U, 0x39494724051c0412U, 0x51494e3a30463550U, 0x11314383b0e252bU,
  0xe204ee0f0c14ee14U, 0xfe0d23182c1cf0e6U, 0xdf1309fef10701fdU, 0xe6efed0bef1b0107U,
  0x1d15251425100cfeU, 0x43252f15192f331bU, 0xfc271b23271f2b1eU, 0x54291105290326f8U,
  0x502a4a522b4d3028U, 0x493d20232f614231U, 0x232113f307fc3448U, 0x254a2d3006060616U,
  0xf7f2fd2a192c2d39U, 0xf7e4f8ffce15e3f7U, 0x1d29fc050c0b0cf3U, 0xe260e1619fd160eU,
  0xf1e2ef040b21393eU, 0x150df9e5f7f1e7f7U, 0x28144c2d4d295027U, 0x102704383e2e4734U,
  0xd7f6d6f10e04eaf1U, 0x51c190a24f003dfU, 0xfd0df90c1f182603U, 0x52716f01b090530U,
  0x342407f00e1d2bf0U, 0x30e0b0f340c2825U, 0x13062511eb121732U, 0x27433f082d170b1eU,
  0x2a131521130b1838U, 0x1711f62a251d332eU, 0xdaed15f404e200f5U, 0x32362d0005ec0505U,
  0x240f3a431a293bffU, 0xc00011511201dU, 0x1b1300091b1e0bfaU, 0xdfe15090f1e0921U,
  0x583d45562c1b2c3bU, 0x153e3c5c4b2a303aU, 0xf20328f41b1f2804U, 0xfe26f10a080f2331U,
  0x2f314f309fb1f16U, 0xfe0818070f33f92eU, 0xf5eef1fdf4ed030dU, 0xe5eed7e7d4f5e0f1U,
  0xce9f8e6dcece1cfU, 0x42703201e343f1bU, 0xf511eeeff20a11edU, 0xfee3fffffd13020bU,
  0xefe50207e90203d0U, 0xd3edf5d0ebcfbae1U, 0xea20e9fa020104d3U, 0x92d0121f500f624U,
  0x2c07fd22261dea22U, 0x9db0ef8f905f325U, 0x714f40e23061504U, 0x2cfe1733413c0af7U,
  0xe1d3f5e213f509ffU, 0xecc3c2c4b3ecdac5U, 0xe305f2e1de09f9ebU, 0xe1e1814150306dfU,
  0x9f40724f21cfb24U, 0x151a061b1524f7f0U, 0x132c140cf9120327U, 0xe807fc261806221bU,
  0xdff1f1d2f5d5e818U, 0x3ef06d4d905deebU, 0xf5dbf5f6d0dcc8f6U, 0x50809fce1f3e002U,
  0xfb0a1115f4fb05d3U, 0x1f29fc122df90017U, 0xf9f4ef0408fb01f6U, 0xd8cedeeeeacdd7fcU,
  0x241216f8fd0318ebU, 0x4633364309160f01U, 0x1820fbf80915133cU, 0xe2e8c9b8d6f5d8f4U,
  0xf2cdc805d3dac2e6U, 0xfed80aee02e4d3fcU, 0xdfb5c6ccc7f6e7eeU, 0xe0dfd6caa5acd4e2U,
  0xd6f1cedeedceddcbU, 0xa4a3c2d6d9c4cfe0U, 0xbcb9b9d2ada8bfbcU, 0xf9f4edd9d9adb2a2U,
  0xdec0b6e4e9ebc8f9U, 0xcbc0d6e8cec0c5beU, 0xc1cfd4deddcaeac6U, 0xe0be802f0d8c3d3U,
  0x132722251214e902U, 0xf3110a04d5fb0fU, 0xf2f5ebe00d0ee8e2U, 0xf800212e05f9fdecU,
  0xd2e2edd7e9ecf1e1U, 0xe1f4d3fcced6dcd7U, 0xf4f2f6f604fe11e1U, 0xd506faf0041e05f1U,
  0xd4b8a8d8c6e9e8e0U, 0xd2d7eceeebe0e5c3U, 0xf4e9fbfde7eee7f1U, 0xcbbfc9efe9f0dde0U,
  0xd3f4d6eafac4e4c5U, 0xe1f2e7d0f3d1d6deU, 0xf8e6ed01d209e6dbU, 0x190b0f00dbe2e307U,
  0xf611e3eef2f90ed8U, 0x181e31011df30af5U, 0xf220fa1cff002301U, 0xd30204e8e2f80108U,
  0x7f5f410080d0ed4U, 0xf60ae3d7e703f3f5U, 0xcede02fcf1f6c1fbU, 0xc0cdd9e6cbe6d8c8U,
  0xdfbec9d8f6f0fce8U, 0xc1ecdfc6ddcecec3U, 0x1a1afc04ecf5e6e3U, 0xf201140be9fff4efU,
  0xdcecad30df6e3eeU, 0x9d807d1f9f5d3e9U, 0xfe33293c0eea060bU, 0x2b0b081706131affU,
  0x1d1f13042513fdffU, 0x3b3a1c2714042ff7U, 0x1837222c390a1421U, 0x1937412122322115U,
  0x2a110c16201d320bU, 0x1530300903fcfb11U, 0xf7012d170b2d1d1aU, 0x190a1feb1a0b031aU,
  0x222a05fe170ee700U, 0xe61e0cec04f7091dU, 0x1feb0efb021316f0U, 0xf30cf2ee10f5fcdeU,
  0xe205dcf2d4fcf30cU, 0x1c0f1315f7f302e4U, 0xf9131d18f4fd04e6U, 0x25f9011511faee1aU,
  0xe2ff14fe14e41108U, 0xfffcd07ef06fafdU, 0xddfbf5f5dc08f60cU, 0x1100f6f8f4eef3ddU,
  0xf6ffefe50de5ddd1U, 0x290711fc282bec04U, 0x302d012009301809U, 0x2b2a3a2f38201d42U,
  0x18040309230e2f1aU, 0xe6e1fd1012022a1eU, 0xd0c9cdc9ced2dfefU, 0xf300f4f0ddfecac6U,
  0xc9b2c6dab8fcd5d6U, 0xbed7e2aabed9b0b7U, 0xeb01fcdbd7ceeae5U, 0xb1b100003e90ae8U,
  0x1617100109200ff2U, 0xfbfb17effaf4090aU, 0xfb10edfd1df2ed29U, 0xece6e2e10504ebf1U,
  0xe7ee1405ea07e6f9U, 0xdddad6f1d8e0fed4U, 0xf7f9f6e5e8eeedbcU, 0xfe9f1f9bedde2e2U,
  0xdfe6f4ddf2effef7U, 0xfe19eb19ff04e1e0U, 0x2f80afe2a32190bU, 0x8dce1d608fd190bU,
  0xddfdf8e0cff5e4fdU, 0xfaf90e3201fc1df4U, 0xf6ed06ffecf3140aU, 0xe6e2f1c9c3d8e0f0U,
  0x4d5e6f5e3c3c0d4U, 0xdd11f3e7d4db05e9U, 0xd0d7d4d2ededdeecU, 0xeddccccaedefebe5U,
  0x290e1b1d01ebe1f7U, 0xecdd11171af40a14U, 0xa2a3badccfabe3f1U, 0xcfa4bba0b1d0c8d8U,
  0xec0b01cadfdcd3cbU, 0xa02ea1004e918f1U, 0x5f2cf01f1ebfef8U, 0x3f00062011dcded7U,
  0x127021104131e21U, 0xdad4d6d4e22207fcU, 0xccd9bdf2e3d6fce1U, 0xf60d0213f2f10a04U,
  0xc2f2e1d5e4eae5e5U, 0xcdffdfe9dbc3cae7U, 0xea02d2fac6f7cbc3U, 0x518e7f9f4ee1303U,
  0x1d2f270ffe1af812U, 0x2021f206f5fc2622U, 0xe9e20beeea16ec16U, 0xe4f5e6eff7ec07e6U,
  0xff1b12e60b0d0b19U, 0xf7ddfdfbeaf7d303U, 0xfe042d0ff7ebfeefU, 0x15020dffe207f6fbU,
  0xf2dbf402e108f3edU, 0xd4d3e11113f80f0aU, 0xf1e800ec0edadce6U, 0xe6cecbf1d4d9e4faU,
  0xfad0f7eae0d7fbbeU, 0xcbdce1f601ecdcf6U, 0xcde2deedc800d6eaU, 0xc3d2b1bec7e2c6cbU,
  0xe8defa01c2bcc6e8U, 0xedf3ccd3cbda08f5U, 0xdcd8edc4d9d6eec6U, 0xd4ebefb9b6bbb1baU,
  0xd600d8f0f1c3f4ddU, 0xe8eed3f9ee04ddfdU, 0xd8cb02d7fdfddce3U, 0xf7d7dffbf5beebecU,
  0x1c283426132b0106U, 0xf6c6d1c5e7e4e402U, 0xedf8c2e1d4f3bfd7U, 0xf01b02fdf9f4eddaU,
  0x1af2ed1e18efe613U, 0x14e707dbe5f2ec09U, 0xc0cfee40df7ffeeU, 0xf1eddae9e600fdf6U,
  0x1ffcf41312dae111U, 0x2b0c1222fe012bfcU, 0x140b120f012e251fU, 0x2bfde51de2fd1c05U,
  0x122ff9f2f324fdffU, 0x2022fd0420212018U, 0x23f5e928150f1606U, 0x601f1edf3da051eU,
  0x22031df81d1b08e3U, 0x1108231c2123f4eeU, 0x28191b3639214323U, 0x242b29073829151eU,
  0x1f27250b190f05U, 0x120afc05080b230eU, 0xef102319fd0c1a1eU, 0x20a20000f1e08e8U,
  0xe1d0e408dee6ea17U, 0xfbdefde0d5d0e9e7U, 0x241cf31505e9fdfdU, 0xf505fc2bfc1a0e06U,
  0x2b3f073c2f0a1a17U, 0x1e533e2226142619U, 0x534c333f45465e41U, 0x28321d3831191e27U,
  0xf42022fd250d1833U, 0xef0e22180d182a12U, 0xd2d3daf01e002121U, 0x140a13faf70dfc0bU,
  0x1c180bfbf3fc11fbU, 0x10230e2df80c0d06U, 0x535a1c201817f9f8U, 0x2136120d24102c43U,
  0x50f0f1c31322427U, 0x2e183b0505171232U, 0x173944243323092fU, 0x50a2fff0f2b2a36U,
  0x29fef919fc1afdf6U, 0x202d2840082f072eU, 0x1f1c4b2d3b390c3eU, 0xbf5252a2a192742U,
  0x30810ef0228fd2aU, 0x310f210731202216U, 0xf5e21c0b1310fb0bU, 0x12f804d8f3e6f7e3U,
  0x453c0eff0f040c17U, 0x2c103424391e2e1dU, 0xea0bedfbf0180306U, 0xdd0e0501d9f9ed02U,
  0x112403290701ff07U, 0xe0c5e2fed8e0dc15U, 0xf05f2e1ec0ad5e3U, 0x3c070a2b281cf20fU,
  0x9f92e2f18340031U, 0x227f402e1e2e827U, 0xfc0a15132f11fc21U, 0x20081d1b3c36192dU,
  0x801263334213d48U, 0x331840142c121f22U, 0x3a112e2b2c101023U, 0x101001d05263319U,
  0x72205feff020bffU, 0x1c00eefeef2e261dU, 0xfd06280418f9eb03U, 0x1c1a0b0c1f0b1706U,
  0xfc20081b0812150eU, 0x7060e15e7f1f603U, 0xed261bff093230U, 0x11e607fdfe15e7faU,
  0x52924fa2f15f2fbU, 0x4325340a12f50804U, 0xa1c331b0a27fd33U, 0x261e2d1efc1f16fbU,
  0xf81d2525312d0530U, 0xf0c060207e5ed1aU, 0x81df6ddf7dfe7f7U, 0x4380c032e0d13fdU,
  0xdbe1e710ee312914U, 0xe11203f3e3e9ecd3U, 0x1febf2f2fd19e6f4U, 0xf3250f20efed1fU,
  0xf3f8fa1a060d140bU, 0x1315e2fe03fff71cU, 0xfbe4eddbd6fff5dfU, 0x191b19e10a08fe03U,
  0x201c02e4e8f3efeaU, 0xf6ff02071805fa0eU, 0x8e6e3f31100ef0fU, 0xec0efa1f1b03f7fbU,
  0x1e2cf5133201f323U, 0x2df420060714ff0fU, 0xd9dde11c0817fc1cU, 0xf1ccf001f6fde50cU,
  0xd1ece3f2dedbe6f3U, 0xbde4d1cdd3e6f2feU, 0xd9d4dde4e9e3dde5U, 0xe8f1f51223fcfd0cU,
  0x150f152bf8f920f9U, 0x1f2e084a3229543bU, 0xeb15fa0e13ea133dU, 0xe3ccc9d4e0f2d20cU,
  0xe0ceedc6e6f3c4e3U, 0x17241e0dec03d8dbU, 0x1f342f180922193fU, 0xe8c9ce1004140d32U,
  0xd9c9eccad5f9bfbdU, 0x1215e2f5cdd4f4bcU, 0x2e6d8fbd0d1da06U, 0xc0dbc6dbc6dde5f8U,
  0x11fa051adcdfecfbU, 0xf604ece1dff2f8ebU, 0xb08e6f7f8090901U, 0xb3cdddedf1f5f400U,
  0xe0c9bbb3e2b5b8b9U, 0xe7c7d3aedaeadbd8U, 0x28262bf0090ff7d1U, 0xa7d8c4c1d504e022U,
  0xb5e0dae0c2dcb2a9U, 0xfff8dee3bce2c2d0U, 0xe310f9e50bece4e2U, 0xcdbdbce8d3ecddf8U,
  0xe6e4c2dbaddfacc1U, 0xea0108e7e7e2d3cbU, 0xfcf2f6ede80e04f2U, 0xaac7cab9d8c5cadbU,
  0xf6f1d6e3e9c5d4aaU, 0xbfdbcbbdf0c5d8cbU, 0xc1c6d6e0c3baf2bfU, 0xebf5eddea8cf96a3U,
  0x99c58bbd9cc2b3cfU, 0xbfb28d98a3a3cdaeU, 0xebbbd2c6aeb7a788U, 0xe7e2f2cabccbd9eeU,
  0xa8b5d0d6d2dacbc9U, 0xc997c1aabaa4afd5U, 0xebe502f1c7cad6beU, 0xd2c5cde3d6d5f7f4U,
  0xbac9f8f3d2f3f0e4U, 0xb6b1ccccd7d5d2a4U, 0x4ecf5caeaddb3e1U, 0xf4dff9e9f9ff00e2U,
  0x1403f9f216010ae3U, 0xf5dff3e7e20df4ffU, 0xfbe505feebea13fbU, 0x2eb050c2003f308U,
  0xfb10d8dbf41c04ecU, 0xcbdcc4fffb0ae405U, 0xd3b9bc9cb9c5bedaU, 0xc4b5b8ebddddc0a4U,
  0xdff2d5c7c3c1ebd9U, 0xea02f0e8dbe3e1b8U, 0xcfc8cfcccfb5f7d1U, 0xd1e3d8fad9e5d2c5U,
  0xe1f6f41105dcf2U, 0x302ededf703e5e1U, 0xf9e3cde0d1f2fedeU, 0xf5dcedd6f2d5d9f4U,
  0x3b08301f29310fe8U, 0x1b251e13003b1d0eU, 0xe7ecd302fcf1f1f7U, 0xa2a080cf410e606U,
  0xe19defa00fe1d1aU, 0xc7f3d9c9eaec070dU, 0x1be4e1f3ec0becd8U, 0x1d05e9fef40cf405U,
  0xf4101d1bee15eefbU, 0x1603ea1208d4f6dfU, 0x422b2c3242173517U, 0x21c1e211f091317U,
  0x9e4d0eef9d7d6f2U, 0xff92507f7f8f321U, 0x2517f90d4412fc2eU, 0xf4e5fcd5e0f7ec2fU,
  0xe7f61d131c0a0309U, 0xdf01fe03e4171a1eU, 0xedf7e0f8f604e8ebU, 0xfe18f4ed211218fcU,
  0xfe0f202714ed1811U, 0xb25e91ef021020bU, 0x3e2d4829082ff8f6U, 0x25032413202a1d19U,
  0xf5fc092a081c230dU, 0x1b3e25081a0de0e7U, 0x102325271e310f08U, 0x1dfd2235120d251aU,
  0x11320815f10afcfbU, 0x6b4f413e514c3011U, 0x5953566053714d72U, 0x5558321d555f3b24U,
  0x1c5b2f405c543a21U, 0xfc0bfc352efe0721U, 0x9ec0c1ce8052b24U, 0x1413402c3346392bU,
  0x3832042a29202915U, 0xe50a061c1f181101U, 0x191411361c15eb1cU, 0x223833295b2f2244U,
  0x463711502b28591eU, 0x40333a1d360e460bU, 0x4f4d37593c3b5153U, 0x354838342a544f3fU,
  0x41402f504a3b3f21U, 0x3f3b2d2e1f303c51U, 0xfb1a1d1942270732U, 0x4046530f304109feU,
  0x2c66483b58654735U, 0x4e204b473f582e50U, 0x4f1a3b41441c263eU, 0x644a2d305a284752U,
  0x522536404d2f4261U, 0x7202f461b331d3dU, 0x340620182e401c21U, 0xfb1a171a020121f9U,
  0x36032e08022efe29U, 0x2626311c33101815U, 0x27270a181a2a0e16U, 0x2c192e320b1a3531U,
  0x2e293529241d1b00U, 0x2d2f0a0bfc1f1a3aU, 0xd701fde106e4ec29U, 0x1916f40215e50405U,
  0x24281c203e3f3942U, 0xff1d154848441a11U, 0x2c24291433142e27U, 0x130a0c383a1a2a50U,
  0x1005f8fe2225290eU, 0xe06182df8290324U, 0x10eff30b15fe1216U, 0xe8cfd9c2eefae7f8U,
  0xe103bcacd3bdbbd7U, 0xee0b111503f2e1eaU, 0x433c16272c152b19U, 0x301c501f362d050bU,
  0x121d1b104c392736U, 0xf5ebf52220150719U, 0xd3e1e70415290b1aU, 0xffffe2cc01dee8f2U,
  0xf303ceb9c8d6d1f1U, 0xfc09f6cef5d7dff9U, 0xe2e81b0429fd1df0U, 0x2011072e24f5ec17U,
  0x4701130c0c151d1dU, 0x1b24000a3954281dU, 0x1cf214e302e00c15U, 0x15f6262123382c10U,
  0x2e032d190f0f322aU, 0xdbf1effc01f1f502U, 0xfce7e0ededee09e8U, 0x111e210b1d10fd07U,
  0x2008f9272522fb0eU, 0x1cebf51627031dffU, 0xf8dfe41b0c200711U, 0xe5c4f6c9e6e30a04U,
  0xfbd3dcd9e4d9f6cbU, 0x15fe0c11dce90cf4U, 0xeed0a1206080837U, 0xeef6e2f50008f6e2U,
  0xededaf1ccd6c6ceU, 0xe5d0f8150cf50ef1U, 0xd1bcb7d6e8e2d7d1U, 0xd1def7c8cbb9e7e2U,
  0xfcd4dfcad6e4cbdbU, 0xf9f2d6ffee06fbf6U, 0xdbd0cad8e103fdedU, 0xdea5dba8ddb8d0d3U,
  0xc4eee5c1dce6bbd3U, 0xede30410ef07f304U, 0xf511f207001cf508U, 0xdacaf9d41113da0eU,
  0x7ffeaeffacccad5U, 0xfff016eb012ffe06U, 0x190ff1012930282eU, 0xed11f9f30d0fe400U,
  0xfb0e001001f504f7U, 0xf1d7d0d9dac8edefU, 0xcedfe0e0e0ebb9e7U, 0xd1bddbd4b6dee8bcU,
  0xede3e6f4c7e0beebU, 0x1622fbddf6ebd1d4U, 0x9fe08170028f318U, 0xd7ff0e09000b0debU,
  0xfe1bf618f90fd1dfU, 0x1c1cfb031f24f611U, 0xe2eee2defc02e70bU, 0xd7dacadff0f1fdddU,
  0xda05f1e9f81ceae5U, 0xe7d206e1cfd8f9e4U, 0xbf5f0fd030dd0eeU, 0xfceeff1a1a09fe1bU,
  0x9f1d9eb0104f708U, 0xfd0c3026efd1f4eeU, 0x623f92f2f1b24f4U, 0xd20110a14260b29U,
  0xe90504f80c22ee19U, 0xfcf1eed8d9e9e00aU, 0x2dff0eaeada101cU, 0xd7f5dbd4ded8c0ecU,
  0xead2d6d0f702e0eaU, 0xecf20115fbebd3e6U, 0xd2e2fcd2ebe51004U, 0xff03f6e5fa052e05U,
  0xeb0004efd7f60ee0U, 0xfd081322123d28feU, 0xecd1c8fbd2f20713U, 0xe4fee2d2c5d8d6dfU,
  0x6fe15fa06f5ffcbU, 0xecdafe01fcdfd9U, 0xd6cef7e1efeafbf8U, 0xe0afc070706d6e7U,
  0x170415f8ed1e0905U, 0x201e3211e907ec03U, 0x803331337281918U, 0xb6cad4e0dddbf3e2U,
  0xd8c6dad2acdca8c9U, 0x2e00ff19fff2eed8U, 0xf6312d0306e5fb16U, 0xf71ffbf6eb0aec2bU,
  0x3511fa162d33fcfbU, 0xf10114eb00f9250dU, 0xf90dcef5ccf5c5f6U, 0x924fff6e1edf0ecU,
  0x2df127f2ea032bfbU, 0x90d29f7f3f60e1eU, 0xed1cfc09f10ef22dU, 0xced6defaecf700edU,
  0x271a13f5f0fe05d3U, 0x163f291d18231021U, 0x1fe34253009254aU, 0x280c1429f6071311U,
  0xf1f10c322d142b0fU, 0xe50812ebe9f51af6U, 0xf5fbf8e70c00dfefU, 0xe8f8ed15f3f713eaU,
  0xccaecebcb7d8bfc9U, 0xb6dca4bcaca497b9U, 0xe3a5da99bf9cabb1U, 0xefe2e8c8e4a0b5acU,
  0xd1e724151e1b01e7U, 0xd5f70fd1cce5fef3U, 0xdf1f1200f80cddf3U, 0xfbdefeebff07fa04U,
  0xa3b5adcac4b9bbe0U, 0xf2d2f2b4d2d5abd4U, 0xa091dec0dfaf7efU, 0xe3caded8de0e030cU,
  0x1df204e1eafdd0dcU, 0xeee6f014e0010605U, 0xd4dfdac3dbefe9f7U, 0xe9eddd0fcae8f6ebU,
  0xf0daeb11dfeb0dfeU, 0xf1fcf4df1619f50aU, 0xf3eff5f5ef1c08e4U, 0xf60decebf5271713U,
  0xbdf5dcd0e5ffd5d8U, 0xcef0ded2f7d5c8ccU, 0xe0d8d4cfb2cad9e6U, 0xeaefffeff3e4ccfcU,
  0x3dbfde7dddbfafdU, 0xe90b10ff01f500d7U, 0xce81a1e0403eddcU, 0xdd01fbf1f106151cU,
  0x2c310f032f2107d7U, 0xf2e271607060121U, 0xeff5d8e9f51516edU, 0xecf3e107f3d6ccd5U,
  0x1f0017fbf8faf8e5U, 0xef24f62b3103352bU, 0x253142060104231cU, 0xcfddcf90c351534U,
  0xfddccde7f814fbfaU, 0xeaebffdef7f000fbU, 0xd7f0f4eb01f7e2faU, 0xf3effedafce9cdU,
  0x22f2fae10acbe5e3U, 0xe416ff131a1c0a15U, 0xe3ef07da03e7deeaU, 0x1f0714f8f4deddfdU,
  0x292b1623032bfcf2U, 0x25fd2df52c161309U, 0xdcf9f0e2dc080b14U, 0xf0cfeedcdad4bdb9U,
  0xce8e6f4d0e0f0d9U, 0xe1e6dad4dbdcfc0bU, 0x812ece2fdd8U, 0x101f1f23fe160815U,
  0xe308e4e7ed1f0214U, 0xef0e00eeece9f1e3U, 0xf8d6d80deefbe006U, 0xe0d0e3abeeead8f5U,
  0x2422221817e004c7U, 0xd5f0f1d1d81ef8ecU, 0x7190ade180aebf0U, 0x319fa1107e3031bU,
  0xf1a0beef9001d00U, 0x35444747322f1826U, 0xff32fa062a292915U, 0xe7fde9f2cad7001fU,
  0x1ff0effabbc9fac8U, 0xf513092dfd0b25U, 0xd8c9e2dce7f9d512U, 0xf0d202e0db05e40aU,
  0xf3f1e7f8e6e609d8U, 0xfde8ece1e6ebf8f2U, 0xd5f2ccf0ef0ff400U, 0xdac2f4e8d6cecfddU,
  0xdf90aecf9f4dd00U, 0xe311170e1b201926U, 0xd6ff04e2d70609e3U, 0x9f019ffe8f410e8U,
  0xdbf7e3fee9190f0dU, 0xe8080715e217def1U, 0xfdd7e10b02ea0203U, 0xf1d006d2f7ea01f8U,
  0xcbfe0400e9f1e7eaU, 0xd3b2e4adb6b0d2dcU, 0xd4c3eaebd5e0e3dfU, 0xda0de1d20404c3e5U,
  0xefe6e9dbe4e5d802U, 0xe70ae3e3cbeff7e1U, 0xc5dadcede5e0f6f9U, 0xe3e8f9e7cbecccd3U,
  0xdaed10160df515fcU, 0xe9dbefe4cf07d504U, 0xf1f3f701e0eb06e9U, 0xf5c8d0e9cb06cdf5U,
  0x1a011cfbe1d1d8daU, 0xf040d12fc0ee910U, 0xcbe2f509fbeeec11U, 0xe7dddcd304eeebfaU,
  0xd100e1be80afc0dU, 0x9f7f910f008140fU, 0xe5e6e0dd02e50414U, 0x1af4dffef8d70c04U,
  0x311029f81bf5190eU, 0xed206121c151f24U, 0xdfe806eae5ffe3feU, 0x200c19fbfe05fa05U,
  0x12fe1005fe2327f6U, 0x1e18101a010213f1U, 0x471d1b230b29ff23U, 0x162a3c412f1a221aU,
  0x102012131c392403U, 0x8f8fee6c3fa08e7U, 0x161603201b1929f0U, 0x28230825390b0d13U,
  0xdeb0b2120fe2827U, 0xffa0721f4161600U, 0x192c0929090d3512U, 0x261ef312fc050ef9U,
  0xf2ee010ef90720f9U, 0xb16ffe8fa23220eU, 0x4f104e70e041101U, 0x333d1b290a11132aU,
  0x251130393544455aU, 0xd9d507d3fa0ffd08U, 0xd0c702f3d301e20bU, 0xdf702f7fbe1d2f9U,
  0xee05e8060cf1f80bU, 0x1826f925f7190cf4U, 0x25ff24052c012829U, 0xd06052102200d0eU,
  0xef5fdff0dfc001aU, 0x3c2af214f116e5f7U, 0x10fb12232f182d4dU, 0xf300ff08012c2c38U,
  0x80ff1d3c909f508U, 0x14181c12052209f1U, 0x3236543e43313548U, 0x1d250c2b37232946U,
  0x3d0427322a3f3c06U, 0xfbf02b02323b3c2aU, 0xf704e00911d7e70aU, 0xff02eed603e3d006U,
  0xfae10d18e8dfcf09U, 0xf8caf9dfd7df0ddcU, 0x9efe71804fefaefU, 0x13fc22111e35f218U,
  0x381e20313925262bU, 0x26101615fffb1236U, 0x2c151a09262e350bU, 0xf102f181c09f0f6U,
  0x60ff405ef12f125U, 0x329180f22262624U, 0x220bf305f7071f26U, 0x2a083519273e0e0eU,
  0x60f42131e3d1412U, 0xf71803012bfd0e09U, 0xf5eb08f7f21407f8U, 0x210b00fff7102102U,
  0x13e2ece80f012721U, 0xe9e3fff2ea09000aU, 0xf40cfd1d17e70fe6U, 0x252d18112504f71bU,
  0x324eb150904ff39U, 0xfdb0005dfff18eaU, 0xf2d5dedbe4f2de15U, 0xf5f50311e50eeddaU,
  0xf0e5e403e105f1f8U, 0x90701e8d8191cf8U, 0xec150aec0900fee7U, 0x224fe19f8eb1bfbU,
  0x1c342b1f1e251a22U, 0x242b1d162a27524bU, 0xc15250b031c230dU, 0xec14ea15fdf61302U,
  0x11081c121a1f2727U, 0x11fa210e35121818U, 0x10060c030c081ffeU, 0xde0810ebe90dff04U,
  0xe8fbdfd20014e308U, 0xdee004dadc1402f3U, 0x18051005ee0bd4d9U, 0xf42a02f1f5f5e816U,
  0x35042b0a313f1d31U, 0x28fe273a4d301d32U, 0x1514f20cebe9f12bU, 0x81517fdf6f2312bU,
  0x2616182608f92a12U, 0x1d17301210232100U, 0x20f33504fcfe0136U, 0x22fcf9fdf8f70d10U,
  0x221205020f120426U, 0xf02062412222ef3U, 0x6062338370b062bU, 0xa131b03f3f227f4U,
  0xf8e4fe080f04fa09U, 0xf28021121051c1bU, 0xc081004fa2e1302U, 0xec2d332d27173212U,
  0xed0b0b061cebfc24U, 0x232708ea132705f0U, 0x2240142c1d2d1638U, 0xfc241902041f320eU,
  0x14f410ff0710f525U, 0xf903ff2009f403fcU, 0xff010af9f7ef0f27U, 0x5f401edf112e7edU,
  0xeb09e0f006ec09fcU, 0xeaf7da000d03ff1aU, 0xe2f8d901eee6fbf7U, 0x1c7e6d3dfe5d2c9U,
  0xf10fbd70ce5d0f2U, 0x1e13f8fb1303f5fbU, 0xaf92416280c1412U, 0x3508201ff9031d29U,
  0x2d23431d32451125U, 0x3505452353333c32U, 0xe0af235130d3312U, 0xeb06140c3022fc2dU,
  0x7ec1c19f918f510U, 0x17fa0fe01610fdf7U, 0xf608fefd101004f7U, 0xe4eb03faf8ea0a1eU,
  0xdcf6d2e8efedf0ccU, 0xfbf602d90004dcd1U, 0xf5da070309dddef7U, 0xd0e6cfddf7dadff9U,
  0xd4ee07f7f3e7c0edU, 0x12251911fc14f4ebU, 0x1bf81413192b201bU, 0xe3deea1c22f118f3U,
  0xda09fecfdcf5b7d8U, 0xd30cd502dcd1f0cbU, 0xecffc6c7dccffefcU, 0xc5e0cec2f6efe106U,
  0x8e9e6dec9f1c1dfU, 0xf418f0ff0ef4f4ddU, 0xe10ad711f3f2ed0dU, 0xf5fb08f0e1ddefU,
  0x92515f3120a14fcU, 0xe15f81ff91211fdU, 0xfe17310c34143409U, 0x107f3fc110c2b07U,
  0x2719ea13f6e5fc01U, 0xdaf3f2160deb0403U, 0x1308d807f2efdcf1U, 0xf3cfd80308e7f70eU,
  0xeef2da02d9f1def3U, 0xe1d3c2d1ebe8f0ebU, 0xfbf9f4cae2cfecb9U, 0xfe070de6ebf2fce0U,
  0x20eef5e40af10d03U, 0xeedfcfbea03070aU, 0x2eccecebfe0fc06U, 0xe2d0c6d3d3c8d6daU,
  0xeee1dbeac3ead9daU, 0xb2bfd4e8ebc8bffaU, 0xe3b5bfcee3ccb3d9U, 0x5ee00e6c2b6ecc5U,
  0xe708e4f9deebe90cU, 0xeedfdfd4f111efe9U, 0xc4eef6d2e0eac2fdU, 0xe3dec3c9d1d4ece5U,
  0x3f2ea0101f7dbe5U, 0xe402f504fb0afa12U, 0xeff0daf7dee7f3f9U, 0xf7f602031a1e06f5U,
  0x1020050f16231bf9U, 0xfbf92f0808050b06U, 0x4f20205030f020aU, 0x8ecebfbf7ec1315U,
  0x6f7eee714dff2d9U, 0x5defe03e0e10de5U, 0xecd102dbedf3dcdbU, 0xf2020810e7e608fcU,
  0xb2105f61cf514efU, 0xeeb011818f81708U, 0xdfcf11ff9e41f21U, 0x5f7f2f2e8f5f818U,
  0xd0e2e1070516e8e3U, 0xd2edf7e605d9cbfdU, 0xef4e8fbffdfd5e9U, 0xe4f9e3e9ef09f2e2U,
  0x71208ef15180ef6U, 0xfd17ea1808f4f516U, 0x826f7ef0f061bf3U, 0x1f92419ea131a22U,
  0xf407f5e20ce0190aU, 0xede4d80e04f9e0faU, 0xfe07e8d9dee7e303U, 0xe6e0081ef7fefdf8U,
  0xe0fe01feedfcf1e9U, 0xe4dc00c9e8f201e9U, 0xdef503f6dce5d3ddU, 0xce04dff5e7d4d803U,
  0x901d708f9050101U, 0x131df3080ae6e9e8U, 0xfd12dfe3e621faf4U, 0xf20cf31210fb05f5U,
  0xfd0d0ef91c1c0beaU, 0xfde9fa0f1f191926U, 0x11db08efdff0ee1dU, 0xeaf018fbdefcee08U,
  0xe825f3081e1feafbU, 0xef0af4f2e20cf5f1U, 0xddfc0c02f7c7e0fcU, 0xf92904f606181f12U,
  0x282f002211311718U, 0xa03f61f0f1cebefU, 0x1bf1ed0a15e9f3fdU, 0xf9f1190cea15fdfbU,
  0xd6fbf6cffcf8d6edU, 0xd0ede8bbe7f2cceaU, 0xfa10dcd8dddaf5b9U, 0x41361e18120914fdU,
  0x3f39164533424244U, 0x33041f353e313d12U, 0x1e2af61c2430293eU, 0x52e1236081d393fU,
  0xead8031209e9ea06U, 0x2a32fb16fc1e03e3U, 0x30033d0d202a0201U, 0xfe32072a0f351a3cU,
  0xfb0a190409eb0714U, 0x3f5a350a1f262becU, 0x22371e4a49234b5bU, 0xfb1efc343a405738U,
  0xe1425f1eb07eb23U, 0x350a040f202409f5U, 0x3e07042b41273a2cU, 0xfceff72a0e3c0813U,
  0x242922fa312826f8U, 0xfd0622002df80b2dU, 0x19e511f4f8282209U, 0x15f2241eea1a020dU,
  0x2b140d1e1b461417U, 0x13e923132117ed20U, 0x2d801effec6d0f3U, 0x1ae903f52bf223dcU,
  0x322b2b3830153705U, 0xeedce6f1ea0715f3U, 0xe0eaf1070617ee01U, 0x311e121d01081af7U,
  0x143a15212c192830U, 0xcdbe3e4eadff213U, 0x4ef0fea0de6dd02U, 0x354d36344731f819U,
  0x441a1b2c2b223d30U, 0xf218070d283d401cU, 0xf0dff4f8f814f7U, 0x393d10f60df6fc03U,
  0xf61b070d1031111cU, 0xf5d6f4fcf4dbe2d5U, 0xcdfe30405ef03d2U, 0xedff221fea1702edU,
  0xcecfa1b05f20b0cU, 0x180d26272afb021bU, 0xe0d1e351a33332dU, 0xebeae61cf9efeb07U,
  0xf0eadbdbcbf2f9eeU, 0x18323921061213feU, 0xf15231e090f320fU, 0x16f0f0000b110715U,
  0x14022aea13171aedU, 0x40130e332e0d381aU, 0x2009221920451b50U, 0xbde1e5d9e0f1fd25U,
  0xdff5c5e0bfc1cac1U, 0xcccec8ddfbd5f1e2U, 0xfac6d9cac5d0eef2U, 0xd20afaf0e7f2dbe2U,
  0x120508f715e4fbdeU, 0xadeecf4ececf1f8U, 0xe7eaf1e3dc10f2f6U, 0x8fee5e0d4d6d6e8U,
  0xedffefde0a0004faU, 0xe3f309f1fbffc2e7U, 0x9f5e8fefff1e1e8U, 0xafbed4f2d2fb0fd8U,
  0xe5cacdbbc7b2d9c9U, 0xfef0fcfbdd04ec10U, 0xe9dbe3fdf2050800U, 0xcfd7c3c4cab6e6e8U,
  0x17fe0bd100fad0c8U, 0x173a29193e2d150bU, 0x2523f21707162036U, 0xf6dafdda030916e4U,
  0x110ef517221fffe4U, 0xdeceef123181b1aU, 0x12f1b0f2607260aU, 0xefee6f6ed1f160dU,
  0x3ebe8e808fe0bcdU, 0xdf3e8e2cfe7d9c8U, 0xbed1fdf1d3edfbdeU, 0x1e27091705ffcdd2U,
  0x2317140f3f042bf8U, 0xd3dcfee5160116feU, 0xefebd6eeccfed6deU, 0x1f0f1e03fdd705d8U,
  0xc5ddef0009001202U, 0xf3c4ddf4bff3e2c4U, 0xe3e7fdfdc9bbebe9U, 0x912011ceff80309U,
  0x11362cff26ef2409U, 0xfb360001090e4315U, 0x34102a300a18032eU, 0x4142104327122109U,
  0x214f384521201a36U, 0xcf814073318300eU, 0x301b38390a022419U, 0xf008efe809230035U,
  0xbcc6eae4dae8d40bU, 0x12d3cdcefee5d5bbU, 0xfff6222219f7f10fU, 0xde15f424f42135feU,
  0xc1adff3090dffe0U, 0x40d04d3fde10611U, 0xf9c8fcd7e2f00202U, 0xeeee05f1f4d7eb04U,
  0xfa0efae7f3f6101bU, 0xe7f8111ced1621fbU, 0x330d362e08110bedU, 0x1931342145263f1fU,
  0x19271dfe16081df4U, 0x2d4a4d4244503017U, 0x1e18181e270f2f58U, 0xb5c1b9cee0d8dae9U,
  0xf5d4c0cccdc9d2c2U, 0x4e191d380a1b18ffU, 0xfb0eedee1f2c0a23U, 0xecfee7f9daf414f3U,
  0x7dee8cac8d0ca07U, 0xffcfdcefd8fedee5U, 0x62f0f211dfae50cU, 0x3f3171704f2e906U,
  0x12c2616dedf1d06U, 0xa172a0cfb25fb02U, 0xe3e1ebf5dd0be0ffU, 0xb1a8a3b699a2c4d8U,
  0xefecd8ed09cee0dfU, 0xe0e3e1dffe0eea01U, 0xe7c7e7debac8bef4U, 0xefe5010507fdf4e5U,
  0x1d2a35502b3620f5U, 0x1c10fdfe15302f23U, 0x8421d49100bffU, 0x282e00150315f802U,
  0xf60212160b0a3a34U, 0x10fa0d001f02f0U, 0xf7d5d6f8df08e7fcU, 0xf313ea02e4110b05U,
  0x2cf70a1813191d2aU, 0xcafee20c1c1d2103U, 0xfcf51005dde4deebU, 0xd2e9ea0feb0116feU,
  0xc2e8dbf7e4ffc0dcU, 0xcdb8d6b4b3ceb6e0U, 0xe3eff5ccd1d8b8b5U, 0x220c120209f5f2d2U,
  0x40112b021740182bU, 0xfc10220e191c2222U, 0x10230af9f8101808U, 0x182c3b2702322f2dU,
  0x2b322a24561a122fU, 0x16fb321b4548471dU, 0xf4221225f40b06f3U, 0xe416edfa030712ecU,
  0xf5e8fd050fe9f7eaU, 0x212b1c0a2506070dU, 0xed0afffff81b0f1aU, 0xdee2d5f7f70aece8U,
  0xd0daeec6ecdce9b2U, 0xc8dffae0d8e7ece3U, 0x391325ee01f8dafdU, 0x152f02110507401fU,
  0x4e61803ebf8ef0aU, 0xe7decde2d6d500e5U, 0x5e619df0ddedae7U, 0x2b20f7f2063202fbU,
  0x1613f90e2d133513U, 0xf004dc090a0a1113U, 0x20f425f50309f1U, 0xf2f6e716eb120102U,
  0xeedfd6fff80805e2U, 0x251903ef24fafcU, 0x1cfffe0a27252800U, 0xf4e80301060fe924U,
  0xeeee0cf62911faf1U, 0xdfb111329fcfff9U, 0x1e1c12343a20371aU, 0xdac8dcfb08113719U,
  0xeacdc8eaead9ebccU, 0x211fef9fac5dbddU, 0x251817061a0e3602U, 0xfff71d2924003837U,
  0xdfe3cff5f4fe16feU, 0x231be00bec1ef603U, 0x1d1c0f0ae5150623U, 0x12ef14162103f30eU,
  0xdffc07dbe819f812U, 0xe5d3db0407ec0709U, 0xe6d7e8e1eec1d201U, 0xe8f5bfd5b5cbe2f9U,
  0xe3dcbbbfe3c4f8f3U, 0xf6f7f814170b0eedU, 0xfaf822f81506ef0aU, 0x92b070e1a070001U,
  0x2bf71c281cf71a25U, 0x192c0d0a14332720U, 0xc0fed60d031f1717U, 0xadcbd9c6bac4ead5U,
  0xc9ccdcd9c0b9d6c2U, 0xfa10e8f9f602dd00U, 0xd7e2f3ccd5c7d8f9U, 0xc5f3b6e3efcac7b9U,
  0xb7b7b1c8f3e7e2aaU, 0xcd2f9d0fedad3U, 0xc29abce4bcd1cae3U, 0xb2c8aba495b5aeccU,
  0xf6dec0eacecea8a7U, 0x4131c1012db1702U, 0x9ecf4041b0122f2U, 0x1cf5f116f90c1b26U,
  0x1c160a03feef1f19U, 0x111411fc14011c07U, 0xfffa242514f61733U, 0xe40ad7fde0eb1afeU,
  0x12e609ffd5fecccdU, 0xccf1d4fbcf09faffU, 0xdabcd4e0d8d9fbe9U, 0xe6c2dfdef3c6b3eaU,
  0xe005fbcef8ecddb7U, 0xe1f5d1dc05ed0ffdU, 0xfbfb0b140c1ff8e2U, 0xfee7dc08f0e20309U,
  0xfbf41014e61306d7U, 0xec1500e41e22ebf7U, 0xc9e3cdcec9d4ecf7U, 0xbbe2dabec8adccc4U,
  0xee09fb08ea0ef5bcU, 0xf2f2120f1c0d09f3U, 0xee0404f6e701070dU, 0x21e5f2ffef17ed0bU,
  0x2b0d080e071803eaU, 0xefe8d5e8f8eff910U, 0xceeed2d4b3d3eedeU, 0xf60af4f0e0cde1e0U,
  0x8e4f7e4e3d6cad5U, 0xe9f1c6ddfbbcd4f4U, 0xd3b5c5d2c8bfd6c7U, 0xaabbc4bfcdd3b3d5U,
  0xdc09f109d5f8d4aeU, 0xcfcbc3cde7c7cccdU, 0xa8d1bcb9a3c4a7cbU, 0xfeddf9c8afb2d5bfU,
  0x5ebcbf5cef5d0ebU, 0xddc8c7adc3d5bae9U, 0xddd0eedcf0e8acacU, 0xf7e508f2edf9c0c9U,
  0x1b19112f30390d20U, 0x1091fe7f10b0ef3U, 0xf81115fb0f18fe2fU, 0xee313f81c180a19U,
  0xd1bfe8dbc6d9e2e7U, 0xcdadd6c7c5c8dbfcU, 0xa8dcc3b8cdb9b1d5U, 0xea0be4a9ba9fc7cdU,
  0xf031c1b35241618U, 0x80c212d0a3d1f3dU, 0xd9e0db16f31d0510U, 0xff12d9e9ffcff2d0U,
  0xe3161b04f8f61cf5U, 0xf3ebe90d0411efe3U, 0xf7dd0afef207f0cbU, 0xf6241bfc1efed4f5U,
